#ifndef HAND_MODEL_H
#define HAND_MODEL_H

const unsigned int hand_model_len = 19192;
const unsigned char hand_model[] = {
 0x20, 0x00, 0x00, 0x00, 0x54, 0x46, 0x4c, 0x33, 0x00, 0x00, 0x00, 0x00,
  0x14, 0x00, 0x20, 0x00, 0x1c, 0x00, 0x18, 0x00, 0x14, 0x00, 0x10, 0x00,
  0x0c, 0x00, 0x00, 0x00, 0x08, 0x00, 0x04, 0x00, 0x14, 0x00, 0x00, 0x00,
  0x1c, 0x00, 0x00, 0x00, 0x94, 0x00, 0x00, 0x00, 0xec, 0x00, 0x00, 0x00,
  0x2c, 0x44, 0x00, 0x00, 0x3c, 0x44, 0x00, 0x00, 0x80, 0x4a, 0x00, 0x00,
  0x03, 0x00, 0x00, 0x00, 0x01, 0x00, 0x00, 0x00, 0x10, 0x00, 0x00, 0x00,
  0x00, 0x00, 0x0a, 0x00, 0x10, 0x00, 0x0c, 0x00, 0x08, 0x00, 0x04, 0x00,
  0x0a, 0x00, 0x00, 0x00, 0x0c, 0x00, 0x00, 0x00, 0x1c, 0x00, 0x00, 0x00,
  0x38, 0x00, 0x00, 0x00, 0x0f, 0x00, 0x00, 0x00, 0x73, 0x65, 0x72, 0x76,
  0x69, 0x6e, 0x67, 0x5f, 0x64, 0x65, 0x66, 0x61, 0x75, 0x6c, 0x74, 0x00,
  0x01, 0x00, 0x00, 0x00, 0x04, 0x00, 0x00, 0x00, 0x94, 0xff, 0xff, 0xff,
  0x0a, 0x00, 0x00, 0x00, 0x04, 0x00, 0x00, 0x00, 0x07, 0x00, 0x00, 0x00,
  0x64, 0x65, 0x6e, 0x73, 0x65, 0x5f, 0x38, 0x00, 0x01, 0x00, 0x00, 0x00,
  0x04, 0x00, 0x00, 0x00, 0xb6, 0xbb, 0xff, 0xff, 0x04, 0x00, 0x00, 0x00,
  0x0d, 0x00, 0x00, 0x00, 0x64, 0x65, 0x6e, 0x73, 0x65, 0x5f, 0x36, 0x5f,
  0x69, 0x6e, 0x70, 0x75, 0x74, 0x00, 0x00, 0x00, 0x02, 0x00, 0x00, 0x00,
  0x34, 0x00, 0x00, 0x00, 0x04, 0x00, 0x00, 0x00, 0xdc, 0xff, 0xff, 0xff,
  0x0d, 0x00, 0x00, 0x00, 0x04, 0x00, 0x00, 0x00, 0x13, 0x00, 0x00, 0x00,
  0x43, 0x4f, 0x4e, 0x56, 0x45, 0x52, 0x53, 0x49, 0x4f, 0x4e, 0x5f, 0x4d,
  0x45, 0x54, 0x41, 0x44, 0x41, 0x54, 0x41, 0x00, 0x08, 0x00, 0x0c, 0x00,
  0x08, 0x00, 0x04, 0x00, 0x08, 0x00, 0x00, 0x00, 0x0c, 0x00, 0x00, 0x00,
  0x04, 0x00, 0x00, 0x00, 0x13, 0x00, 0x00, 0x00, 0x6d, 0x69, 0x6e, 0x5f,
  0x72, 0x75, 0x6e, 0x74, 0x69, 0x6d, 0x65, 0x5f, 0x76, 0x65, 0x72, 0x73,
  0x69, 0x6f, 0x6e, 0x00, 0x0e, 0x00, 0x00, 0x00, 0x3c, 0x43, 0x00, 0x00,
  0x34, 0x43, 0x00, 0x00, 0x24, 0x39, 0x00, 0x00, 0xec, 0x38, 0x00, 0x00,
  0xdc, 0x37, 0x00, 0x00, 0xcc, 0x35, 0x00, 0x00, 0xbc, 0x20, 0x00, 0x00,
  0xac, 0x00, 0x00, 0x00, 0xa4, 0x00, 0x00, 0x00, 0x9c, 0x00, 0x00, 0x00,
  0x94, 0x00, 0x00, 0x00, 0x8c, 0x00, 0x00, 0x00, 0x6c, 0x00, 0x00, 0x00,
  0x04, 0x00, 0x00, 0x00, 0x6a, 0xbc, 0xff, 0xff, 0x04, 0x00, 0x00, 0x00,
  0x58, 0x00, 0x00, 0x00, 0x0c, 0x00, 0x00, 0x00, 0x08, 0x00, 0x0e, 0x00,
  0x08, 0x00, 0x04, 0x00, 0x08, 0x00, 0x00, 0x00, 0x10, 0x00, 0x00, 0x00,
  0x28, 0x00, 0x00, 0x00, 0x00, 0x00, 0x06, 0x00, 0x08, 0x00, 0x04, 0x00,
  0x06, 0x00, 0x00, 0x00, 0x04, 0x00, 0x00, 0x00, 0x01, 0x00, 0x00, 0x00,
  0xea, 0x03, 0x00, 0x00, 0x00, 0x00, 0x0a, 0x00, 0x10, 0x00, 0x0c, 0x00,
  0x08, 0x00, 0x04, 0x00, 0x0a, 0x00, 0x00, 0x00, 0x02, 0x00, 0x00, 0x00,
  0x02, 0x00, 0x00, 0x00, 0x04, 0x00, 0x00, 0x00, 0x06, 0x00, 0x00, 0x00,
  0x32, 0x2e, 0x31, 0x33, 0x2e, 0x30, 0x00, 0x00, 0xce, 0xbc, 0xff, 0xff,
  0x04, 0x00, 0x00, 0x00, 0x10, 0x00, 0x00, 0x00, 0x32, 0x2e, 0x33, 0x2e,
  0x30, 0x00, 0x00, 0x00, 0x00, 0x00, 0x00, 0x00, 0x00, 0x00, 0x00, 0x00,
  0x54, 0xb7, 0xff, 0xff, 0x58, 0xb7, 0xff, 0xff, 0x5c, 0xb7, 0xff, 0xff,
  0x60, 0xb7, 0xff, 0xff, 0xfa, 0xbc, 0xff, 0xff, 0x04, 0x00, 0x00, 0x00,
  0x00, 0x20, 0x00, 0x00, 0x11, 0xf1, 0x0c, 0xfe, 0xf6, 0x20, 0x15, 0x0f,
  0x04, 0x10, 0xfa, 0xf0, 0x07, 0xf4, 0xfc, 0x0c, 0x00, 0xf6, 0xfb, 0xfc,
  0x04, 0xfa, 0xf5, 0x00, 0x11, 0xf5, 0xea, 0x04, 0x35, 0x15, 0x0f, 0xf1,
  0xf0, 0xff, 0x0e, 0x09, 0x09, 0x06, 0x23, 0xf9, 0x07, 0xf2, 0x02, 0xf2,
  0x04, 0x05, 0x04, 0xe4, 0xf0, 0xff, 0x13, 0x0c, 0x04, 0x12, 0x2b, 0x0b,
  0x07, 0xfd, 0xe9, 0xf5, 0xff, 0x03, 0x0d, 0x05, 0xf0, 0x2d, 0xfe, 0xd9,
  0x0e, 0xfc, 0xfe, 0x07, 0xf5, 0xfe, 0xfc, 0xf8, 0xf4, 0xf8, 0xfe, 0xff,
  0x12, 0x09, 0x17, 0xf7, 0xf5, 0xfc, 0x0c, 0xf0, 0x02, 0x1d, 0x01, 0x3d,
  0x0c, 0x03, 0xfd, 0xf4, 0x08, 0xed, 0x02, 0x13, 0x08, 0xff, 0x04, 0x11,
  0x0c, 0x33, 0x06, 0x14, 0xfc, 0x29, 0x09, 0x0d, 0x00, 0x02, 0xfe, 0xf5,
  0xf7, 0xfb, 0xfe, 0x05, 0x1a, 0x16, 0x09, 0x04, 0x00, 0xf9, 0xe1, 0x24,
  0x0c, 0xff, 0x08, 0x00, 0xfa, 0x2a, 0xfb, 0x25, 0xf4, 0xed, 0xfb, 0x17,
  0xf6, 0xfe, 0x09, 0xfd, 0xe0, 0xfc, 0x14, 0xf7, 0xff, 0xf6, 0xfd, 0xf6,
  0xfd, 0xfb, 0xfe, 0x0b, 0xe7, 0xf5, 0x06, 0x12, 0x16, 0x21, 0x34, 0x02,
  0x10, 0xf5, 0xe9, 0xdd, 0x28, 0x1b, 0x06, 0xfa, 0xfc, 0x07, 0x07, 0x16,
  0x43, 0x0d, 0xee, 0xf0, 0x05, 0x0d, 0xfe, 0xf4, 0x03, 0xfa, 0x0c, 0x15,
  0x0f, 0x0d, 0x09, 0x13, 0xeb, 0xf2, 0x02, 0x13, 0x01, 0xfe, 0xf7, 0x0e,
  0x00, 0xfd, 0x08, 0x07, 0xf3, 0xfa, 0xfa, 0xf8, 0xf0, 0xf7, 0xfc, 0x1e,
  0xf5, 0xf6, 0x0c, 0xe5, 0x24, 0x36, 0xf5, 0xe4, 0xe7, 0x0d, 0xf3, 0xf2,
  0xfb, 0xff, 0x18, 0x0a, 0x0e, 0xf7, 0x00, 0x00, 0xfb, 0x17, 0xfb, 0xff,
  0xf4, 0xfd, 0xfa, 0xf3, 0xfd, 0x09, 0xf9, 0x06, 0xf9, 0xda, 0x03, 0x0a,
  0xec, 0x19, 0x0d, 0x04, 0xf5, 0xf6, 0xfb, 0xc6, 0xfd, 0xf6, 0xf8, 0xf9,
  0x08, 0xf2, 0x0c, 0xff, 0xff, 0x07, 0x0c, 0xf5, 0x08, 0xf7, 0xff, 0x03,
  0x0b, 0xf7, 0x01, 0x06, 0xf6, 0xfc, 0x03, 0xfd, 0xfc, 0x01, 0xfb, 0x07,
  0xf8, 0xfd, 0xf3, 0xf4, 0x00, 0xf6, 0xfc, 0x09, 0xfd, 0xf6, 0xff, 0x06,
  0x0a, 0x09, 0xfa, 0x05, 0xf4, 0xff, 0xfb, 0x08, 0xf4, 0x09, 0x03, 0xf3,
  0xfa, 0xfb, 0x00, 0x03, 0x0b, 0xf2, 0xff, 0x07, 0x02, 0x08, 0xf4, 0xf3,
  0x0c, 0x04, 0x0a, 0x01, 0xf8, 0x06, 0x0c, 0xf4, 0xf8, 0xfd, 0x08, 0xff,
  0xfc, 0x05, 0xfd, 0x0a, 0xf7, 0xf9, 0x00, 0xf8, 0xf6, 0xf6, 0x06, 0x03,
  0x02, 0xfd, 0xf7, 0x05, 0xfd, 0xfb, 0x06, 0xfd, 0xfa, 0x03, 0x0c, 0x02,
  0xf8, 0x05, 0x00, 0x09, 0x02, 0xf9, 0xfb, 0x01, 0x04, 0xf8, 0x09, 0xfe,
  0x0d, 0x04, 0x00, 0x00, 0xf8, 0xf3, 0xf8, 0x0d, 0xf8, 0xf5, 0x06, 0xff,
  0xf5, 0x07, 0x09, 0xf8, 0x15, 0xff, 0xf6, 0xfc, 0x07, 0x16, 0x17, 0xdb,
  0xfc, 0x10, 0x02, 0x08, 0xe7, 0xf8, 0x00, 0x08, 0xed, 0x03, 0xf4, 0xfa,
  0xf8, 0xfa, 0xf4, 0xfb, 0x0b, 0xfd, 0xe5, 0xfd, 0x2f, 0xd8, 0x0f, 0xea,
  0xf4, 0xfe, 0x62, 0x09, 0x0c, 0x15, 0x1e, 0xee, 0x08, 0x10, 0x04, 0xf6,
  0x07, 0x0b, 0x0a, 0xde, 0x25, 0x0c, 0xfd, 0x0c, 0x0c, 0x1a, 0x2d, 0x02,
  0xfb, 0x0b, 0x04, 0xf6, 0xec, 0x07, 0x08, 0xfd, 0x05, 0x04, 0x15, 0xd2,
  0xe9, 0x00, 0x04, 0xf1, 0xf6, 0x0a, 0xf6, 0xfd, 0xfd, 0xf9, 0x0c, 0xf8,
  0x26, 0x06, 0x3d, 0xdb, 0x08, 0xf7, 0x12, 0xec, 0xfa, 0x19, 0x05, 0xf1,
  0x30, 0x05, 0x00, 0x09, 0x00, 0xe9, 0x0c, 0xf1, 0x05, 0xfa, 0x11, 0x1d,
  0xf4, 0x15, 0xfd, 0x16, 0xf3, 0x34, 0xf9, 0x14, 0x09, 0xf4, 0x06, 0xf1,
  0x09, 0x21, 0xf4, 0xf6, 0x17, 0x1c, 0xfd, 0x0c, 0xf4, 0xe8, 0x01, 0x0a,
  0x02, 0xf4, 0xf9, 0xff, 0x0c, 0xea, 0x10, 0x03, 0x02, 0x07, 0xfe, 0x09,
  0x22, 0x0c, 0xf9, 0x07, 0x16, 0xfb, 0x10, 0x09, 0xfb, 0xfb, 0x06, 0xfb,
  0x20, 0x01, 0xf3, 0xf6, 0x10, 0xfe, 0xff, 0xfc, 0x02, 0xef, 0x20, 0x07,
  0x00, 0x03, 0x17, 0x29, 0x02, 0x08, 0x07, 0xfc, 0xf6, 0xfe, 0xfc, 0xf5,
  0xdb, 0x05, 0x01, 0x1b, 0x06, 0xff, 0x25, 0x01, 0xfa, 0x05, 0xf2, 0x0e,
  0x0b, 0xf7, 0x0e, 0xf6, 0x04, 0x0b, 0xed, 0x07, 0x2e, 0xff, 0x06, 0x02,
  0xfe, 0x0b, 0x05, 0xf5, 0x09, 0x0c, 0x02, 0x0b, 0x1f, 0x05, 0x13, 0xf0,
  0x06, 0x11, 0xec, 0x0a, 0x00, 0xfe, 0x07, 0x45, 0x26, 0xf7, 0xf5, 0x0e,
  0x02, 0xfa, 0x03, 0xf5, 0xf8, 0xff, 0xfc, 0xe8, 0x06, 0x1e, 0xf5, 0x0f,
  0x0c, 0x21, 0xfe, 0xfc, 0x0c, 0x01, 0x00, 0x16, 0xfd, 0xf9, 0xf7, 0xf5,
  0x17, 0xfc, 0x0b, 0x02, 0x0a, 0x0a, 0x03, 0x2d, 0x01, 0x0b, 0xf9, 0x0a,
  0x00, 0x07, 0x19, 0x01, 0x09, 0xeb, 0x07, 0xeb, 0xf2, 0xfa, 0xfe, 0x0b,
  0x23, 0x04, 0xdb, 0x09, 0x0d, 0x0b, 0xf8, 0x05, 0xe7, 0xfb, 0xf6, 0x1a,
  0x29, 0x2a, 0x06, 0xe0, 0xda, 0x0c, 0x2a, 0x0b, 0x18, 0x14, 0x21, 0xd2,
  0xe3, 0x04, 0xfd, 0x0c, 0xfa, 0x01, 0xfc, 0xe7, 0xef, 0x0e, 0x00, 0x05,
  0x0d, 0x12, 0x04, 0x0b, 0x04, 0x0d, 0x25, 0x00, 0x03, 0x06, 0x0a, 0x01,
  0x08, 0x05, 0x11, 0xf6, 0xf7, 0xfd, 0x0c, 0xf8, 0x15, 0xfa, 0xfd, 0xf9,
  0xf4, 0xfb, 0xf8, 0xf6, 0xea, 0xf5, 0x28, 0xe3, 0xf5, 0xe7, 0x27, 0xcd,
  0x07, 0x07, 0xe9, 0xe3, 0x1d, 0xf4, 0x3d, 0xee, 0xfe, 0xf3, 0x22, 0x0f,
  0xf4, 0x08, 0xe2, 0x29, 0x23, 0xfd, 0x07, 0x01, 0xe1, 0x19, 0xf8, 0x00,
  0x0b, 0xf7, 0xff, 0xfd, 0x06, 0x0f, 0xfb, 0xf6, 0x14, 0x1a, 0xf4, 0xf5,
  0xff, 0xf2, 0xdd, 0x1b, 0xf2, 0xfb, 0xfd, 0xf8, 0x0a, 0xf4, 0xf5, 0x03,
  0x09, 0xf3, 0xf6, 0xfc, 0x04, 0xf6, 0x09, 0xf9, 0xff, 0x09, 0x0b, 0x0c,
  0xf8, 0x05, 0x01, 0xf6, 0x05, 0xff, 0xfc, 0x00, 0x09, 0x07, 0x02, 0x02,
  0xf6, 0x0c, 0x01, 0x08, 0x07, 0xf8, 0xf3, 0xff, 0x09, 0xff, 0x08, 0xf4,
  0x05, 0x06, 0xf9, 0x0b, 0x09, 0x00, 0x07, 0x08, 0xfd, 0xfa, 0x0d, 0x0d,
  0x03, 0xf5, 0xf9, 0x0b, 0x0a, 0xf4, 0xfe, 0xf5, 0xf9, 0x03, 0xf5, 0x0b,
  0xf8, 0x0a, 0xff, 0xf7, 0x08, 0xf6, 0x04, 0x09, 0x0d, 0xfa, 0x04, 0xfe,
  0x00, 0x03, 0xf6, 0x02, 0xfc, 0x02, 0xfb, 0x01, 0x0a, 0xfe, 0xf2, 0x01,
  0x01, 0x07, 0x07, 0xf6, 0x0a, 0x00, 0xff, 0xf3, 0x00, 0xfb, 0xfd, 0xf5,
  0xf9, 0xfa, 0xfc, 0xf5, 0xfe, 0xf5, 0x08, 0xfc, 0xfe, 0xfe, 0xfc, 0x03,
  0xf9, 0xfa, 0xfb, 0x01, 0x07, 0xf5, 0x0d, 0x06, 0x05, 0x09, 0x00, 0xf7,
  0xff, 0x06, 0x00, 0x02, 0x09, 0xf5, 0x00, 0xf4, 0xfe, 0x0a, 0x02, 0x03,
  0x0e, 0x08, 0x0b, 0x00, 0xf6, 0x0c, 0xfc, 0xfb, 0x02, 0x03, 0x02, 0x02,
  0x09, 0x04, 0xf9, 0xfb, 0xfc, 0x01, 0xf9, 0xfb, 0x06, 0xfd, 0xfa, 0x0a,
  0xff, 0x02, 0x04, 0xf4, 0xf5, 0xfe, 0x04, 0xf9, 0xf3, 0xf4, 0xfb, 0x05,
  0xf9, 0xf9, 0xf3, 0xfa, 0x08, 0xf8, 0x00, 0x07, 0x0a, 0xf2, 0xf6, 0xfe,
  0x09, 0xf7, 0xf2, 0xfa, 0x05, 0xff, 0xfb, 0xff, 0x08, 0x02, 0xf8, 0xf9,
  0x06, 0xfb, 0xff, 0x07, 0x08, 0x08, 0xf6, 0x03, 0xf3, 0xfd, 0x05, 0xf8,
  0x0c, 0x02, 0xfa, 0x00, 0xfb, 0x03, 0xff, 0x0b, 0xf4, 0xf9, 0xf3, 0x05,
  0x08, 0x07, 0x04, 0xfd, 0xfa, 0xf4, 0xf9, 0x04, 0x0a, 0x03, 0x01, 0xfe,
  0xfe, 0xff, 0x05, 0x06, 0xfb, 0x0c, 0xfe, 0xfe, 0x03, 0xf8, 0x0a, 0xf9,
  0x02, 0xff, 0xf5, 0xf7, 0xf8, 0xf6, 0xff, 0x03, 0x06, 0xf4, 0x07, 0xfb,
  0x09, 0x09, 0x08, 0x09, 0xfc, 0xf3, 0x04, 0x0a, 0x0a, 0xf5, 0xf7, 0xff,
  0x0b, 0xf9, 0xff, 0x03, 0xfa, 0x00, 0x0a, 0xff, 0x04, 0x08, 0x0a, 0xfe,
  0x01, 0x0c, 0xf9, 0x0b, 0x01, 0xf5, 0xf5, 0xf8, 0xfe, 0xfe, 0xf8, 0xfb,
  0xf9, 0x04, 0x06, 0x03, 0x0b, 0xf8, 0xfa, 0xff, 0xfa, 0xf4, 0x04, 0xfa,
  0xf7, 0xff, 0xf7, 0xf8, 0x0c, 0x02, 0xf2, 0xf7, 0x02, 0xf3, 0x09, 0xfe,
  0xfe, 0xfc, 0xf4, 0xf8, 0xfc, 0x07, 0x08, 0xfb, 0x08, 0xf6, 0xfe, 0xfe,
  0xfe, 0xf8, 0xfb, 0xfc, 0xfc, 0xf5, 0x09, 0x01, 0x04, 0x04, 0xf5, 0xfa,
  0xf1, 0x00, 0xf3, 0xfb, 0x0c, 0xfc, 0x06, 0xfb, 0xf8, 0x0a, 0x0a, 0x04,
  0xf3, 0xf7, 0x03, 0x03, 0x0b, 0x04, 0xfc, 0x0a, 0x06, 0x06, 0x04, 0x02,
  0xf5, 0xff, 0xfb, 0x0c, 0x04, 0xf6, 0x0c, 0x05, 0x03, 0x00, 0xf4, 0x06,
  0x0b, 0xf2, 0xff, 0xf5, 0x10, 0xfe, 0xfc, 0x09, 0x0c, 0xe5, 0x0b, 0xf8,
  0xf6, 0x05, 0xfb, 0x15, 0x22, 0x0d, 0xfe, 0xf4, 0x27, 0xf7, 0xfc, 0x08,
  0x0a, 0x03, 0x06, 0x0a, 0xfd, 0x00, 0x10, 0xf1, 0x18, 0xe1, 0xf9, 0xfe,
  0x07, 0xfa, 0xea, 0xf6, 0x05, 0x12, 0x12, 0x26, 0xf4, 0x07, 0x07, 0x00,
  0xf8, 0x05, 0x00, 0xeb, 0xbc, 0x0f, 0x0a, 0x09, 0xfa, 0x00, 0x17, 0xfc,
  0xff, 0x00, 0xfb, 0x09, 0x10, 0x0b, 0x0b, 0x08, 0xf7, 0x12, 0xe5, 0x17,
  0x52, 0xfd, 0xfa, 0x08, 0x02, 0xf3, 0xfa, 0xf5, 0x09, 0xf7, 0xf3, 0xf6,
  0xfc, 0xf8, 0xfa, 0xf1, 0xfe, 0x05, 0xf4, 0x1d, 0xff, 0xf6, 0x18, 0x39,
  0x14, 0x0b, 0xe5, 0x1e, 0x03, 0x01, 0xed, 0x00, 0xed, 0xfb, 0xf2, 0xe1,
  0x0e, 0xfb, 0xfc, 0x0f, 0x18, 0x04, 0xfa, 0xfb, 0x00, 0x0a, 0xff, 0x11,
  0x0c, 0xe4, 0xfc, 0xf4, 0xfa, 0xe7, 0x0a, 0x08, 0xfb, 0x06, 0x0f, 0x1f,
  0x10, 0x22, 0xf8, 0xfa, 0xfb, 0xba, 0x06, 0xf0, 0xfe, 0x04, 0xfd, 0x10,
  0x05, 0x04, 0x01, 0x08, 0x1f, 0xfa, 0x12, 0xfd, 0x08, 0x05, 0xf9, 0x01,
  0xfd, 0xf6, 0xfa, 0x0c, 0x0f, 0xe3, 0x0f, 0xe0, 0xf3, 0xf7, 0x2d, 0x12,
  0x02, 0x2e, 0x14, 0x1e, 0xc4, 0xf8, 0x09, 0x13, 0xfb, 0x05, 0xf5, 0x06,
  0xf7, 0x16, 0xe6, 0xf8, 0xfd, 0x0d, 0xf4, 0x0b, 0x03, 0x0c, 0x24, 0x13,
  0xeb, 0x04, 0x01, 0xfd, 0x1e, 0xe1, 0x10, 0x14, 0xa4, 0x09, 0xfd, 0x09,
  0x08, 0xf8, 0xfd, 0xfc, 0xf5, 0x09, 0x01, 0x09, 0x0a, 0x02, 0xed, 0xf2,
  0xf6, 0x11, 0x08, 0x1a, 0xed, 0xc9, 0xf7, 0xc1, 0x34, 0x15, 0x22, 0x35,
  0xf3, 0x0d, 0x25, 0xfa, 0x06, 0xff, 0xdd, 0x0c, 0x11, 0xdf, 0x09, 0x0d,
  0x00, 0xd3, 0xfd, 0xf6, 0x00, 0xfd, 0x06, 0x1e, 0x00, 0x34, 0x03, 0xf4,
  0xf2, 0xf4, 0x06, 0x11, 0x00, 0x0b, 0x0d, 0xf6, 0x11, 0x02, 0xfc, 0xf6,
  0x0b, 0x0e, 0x16, 0x05, 0x0c, 0xe0, 0x0a, 0x3c, 0xfa, 0xfe, 0xfe, 0xf5,
  0xe4, 0xf4, 0x10, 0x00, 0x08, 0xfc, 0xf5, 0xf8, 0x08, 0x08, 0xdd, 0xfc,
  0x12, 0xf7, 0x10, 0xec, 0x19, 0x13, 0x72, 0xf9, 0x0d, 0xf4, 0x11, 0xeb,
  0x39, 0x05, 0xfe, 0xf9, 0xfe, 0x0a, 0xfb, 0x08, 0x2a, 0x0f, 0xdb, 0xf1,
  0xff, 0x18, 0x14, 0x0c, 0x01, 0x10, 0x13, 0x21, 0x0d, 0xfa, 0x15, 0x13,
  0xf6, 0xd8, 0x06, 0x03, 0xf5, 0xfe, 0xf6, 0x08, 0x1a, 0xfd, 0xf4, 0xf0,
  0x04, 0xfe, 0x01, 0xf4, 0x01, 0x0c, 0x1a, 0x13, 0xf5, 0x05, 0x1c, 0xf3,
  0x1d, 0x2f, 0xe0, 0xe9, 0x3c, 0xfc, 0x08, 0x1c, 0x03, 0xe9, 0x50, 0xe3,
  0xf9, 0x08, 0xe9, 0xf8, 0x18, 0x26, 0xfa, 0xf8, 0xd3, 0x11, 0xf9, 0xf4,
  0x02, 0x0a, 0x05, 0x0d, 0xf9, 0xe1, 0xf5, 0xf9, 0x07, 0x1c, 0xf7, 0x0c,
  0xfc, 0x0e, 0xf2, 0xf5, 0xfd, 0x01, 0x07, 0xfa, 0xf4, 0x29, 0x12, 0x12,
  0xff, 0x23, 0xff, 0xed, 0x17, 0x08, 0xf9, 0xf9, 0x1d, 0xfb, 0xf6, 0xf8,
  0xfb, 0x01, 0xf3, 0x06, 0x05, 0xf5, 0x00, 0x06, 0x16, 0x09, 0xee, 0xf5,
  0xcd, 0xfd, 0xc8, 0xfe, 0x11, 0x12, 0xfe, 0x11, 0xdb, 0x03, 0x06, 0x13,
  0x0a, 0xfa, 0xf6, 0xc9, 0xee, 0xea, 0x21, 0xf9, 0x0c, 0xfc, 0x1c, 0x03,
  0xfc, 0x0a, 0xf5, 0xec, 0x07, 0xf5, 0xef, 0x1c, 0x08, 0x30, 0xf8, 0x0c,
  0x50, 0x0c, 0x08, 0xfc, 0xf3, 0xf5, 0x05, 0x0a, 0x04, 0x09, 0x03, 0x03,
  0x12, 0x04, 0xde, 0x04, 0x0d, 0x0e, 0xf8, 0x14, 0x0d, 0xf3, 0x0e, 0x43,
  0xcc, 0x16, 0xf8, 0xe6, 0xfe, 0x00, 0xcf, 0x1a, 0x0f, 0xfa, 0x05, 0x18,
  0x00, 0x1d, 0x0a, 0xf0, 0x01, 0x0b, 0xfb, 0x0a, 0x04, 0x0d, 0xf6, 0x0a,
  0xfb, 0x03, 0x06, 0x03, 0x0a, 0xf3, 0x05, 0xf1, 0xff, 0xdc, 0xd6, 0x0c,
  0xff, 0x1f, 0xf4, 0xf6, 0xfd, 0xe7, 0x1c, 0xe1, 0x07, 0xf9, 0x00, 0x14,
  0xfd, 0x0a, 0x01, 0x06, 0xe4, 0x02, 0x0f, 0xf5, 0x0b, 0x03, 0x09, 0x08,
  0x0c, 0x04, 0xf4, 0x11, 0x0b, 0xeb, 0x1b, 0xfa, 0xf9, 0x08, 0x54, 0x0f,
  0x00, 0x23, 0x24, 0xf2, 0xf3, 0x14, 0x0a, 0x0c, 0x0d, 0x0c, 0x05, 0x02,
  0x35, 0x00, 0xe8, 0x07, 0xf8, 0x07, 0xe8, 0xfb, 0x0a, 0x06, 0x1d, 0xfc,
  0xea, 0x0d, 0x13, 0xf8, 0x01, 0xde, 0x23, 0xf4, 0xa6, 0x08, 0xf9, 0xfe,
  0x06, 0xf9, 0xfa, 0x0b, 0x00, 0x08, 0x01, 0xf4, 0x12, 0xf6, 0x01, 0xef,
  0xfe, 0x0a, 0x14, 0xf2, 0x06, 0xe1, 0xf1, 0xa6, 0x1c, 0x05, 0x2c, 0x18,
  0xf9, 0x0e, 0x1c, 0xf9, 0x04, 0xf8, 0xe2, 0x1e, 0x04, 0xe4, 0xf7, 0x04,
  0xe3, 0xe6, 0xfa, 0x08, 0x01, 0x02, 0xfc, 0x05, 0xfa, 0x30, 0x06, 0x05,
  0xfa, 0x0f, 0xfb, 0x01, 0xf5, 0xff, 0x04, 0xe4, 0xf6, 0xfb, 0xfa, 0x01,
  0x0b, 0xfb, 0xf7, 0x0c, 0x03, 0x00, 0x0a, 0xfe, 0x01, 0x06, 0xfb, 0x09,
  0x08, 0xf4, 0x00, 0xfa, 0x0c, 0x04, 0xfd, 0xfd, 0x02, 0x04, 0x08, 0xff,
  0xfe, 0xf7, 0x08, 0x00, 0xff, 0xfa, 0xf9, 0x05, 0xfe, 0x08, 0xf9, 0xf4,
  0x07, 0x02, 0xfe, 0x08, 0x0c, 0x09, 0x09, 0x07, 0xfc, 0x08, 0xf6, 0xfd,
  0xff, 0xf4, 0x07, 0x02, 0xfb, 0xfb, 0xf4, 0xfb, 0xfd, 0xf4, 0x01, 0xfa,
  0xfa, 0x09, 0xf7, 0x00, 0x0c, 0xf6, 0xfe, 0xfa, 0xf5, 0x01, 0xfe, 0xff,
  0xf6, 0x08, 0x07, 0x0b, 0x0c, 0x0a, 0xfd, 0xf4, 0x02, 0xf9, 0xfb, 0xf8,
  0xf4, 0xf7, 0xfb, 0x04, 0xf9, 0xff, 0x08, 0xf3, 0x01, 0x09, 0x0c, 0xf6,
  0x05, 0x08, 0x0d, 0xfb, 0xf4, 0xf6, 0x0a, 0xfd, 0xf7, 0xf3, 0x06, 0xfd,
  0xf9, 0x0b, 0x0a, 0x05, 0xf8, 0x0b, 0x0b, 0x09, 0x03, 0xf5, 0x04, 0x06,
  0x0b, 0x0c, 0x00, 0xf9, 0x14, 0xeb, 0x05, 0x04, 0x07, 0x2a, 0x15, 0xfc,
  0xfe, 0xf3, 0x0c, 0x08, 0x11, 0x0b, 0xf9, 0x03, 0x08, 0x06, 0xf7, 0x03,
  0xfc, 0xff, 0x04, 0x03, 0x0d, 0x0b, 0xf7, 0xfd, 0x16, 0xdc, 0x07, 0xfa,
  0x00, 0x05, 0x4f, 0x0a, 0x04, 0x22, 0x14, 0xf3, 0x19, 0x14, 0x0b, 0x05,
  0x04, 0x02, 0xf9, 0xde, 0x04, 0x07, 0xe8, 0x01, 0x07, 0x0b, 0x23, 0xf6,
  0x05, 0xff, 0x0b, 0x0a, 0xfc, 0xfc, 0xfe, 0x12, 0xf1, 0x05, 0xf4, 0xde,
  0x22, 0x07, 0x03, 0x01, 0xf6, 0x05, 0xff, 0xfe, 0x08, 0x0d, 0x04, 0x08,
  0x0e, 0xf8, 0x13, 0xfc, 0x01, 0x09, 0x13, 0xfc, 0x19, 0x11, 0xf6, 0x33,
  0x18, 0xfd, 0xf9, 0xf7, 0xf5, 0xfd, 0x1a, 0xfe, 0xfa, 0x02, 0xf4, 0x09,
  0x01, 0x30, 0xff, 0x0c, 0xf5, 0x1b, 0x06, 0x0f, 0x01, 0x00, 0xf7, 0x05,
  0x07, 0xf3, 0x01, 0xf7, 0x1f, 0x02, 0x0b, 0x11, 0x0c, 0xf8, 0x03, 0x05,
  0xff, 0x0a, 0xf9, 0x01, 0x0c, 0xf0, 0xfe, 0x02, 0xfe, 0x0d, 0x0c, 0xfb,
  0x06, 0x02, 0xfa, 0x00, 0x12, 0x04, 0xf0, 0xfd, 0x08, 0x07, 0x02, 0x02,
  0x05, 0x06, 0x05, 0xff, 0xf3, 0x02, 0xf1, 0xf5, 0xfd, 0xfb, 0xfb, 0xf3,
  0x09, 0xf2, 0xf4, 0xec, 0xf5, 0xf9, 0xf3, 0x08, 0x08, 0x03, 0x03, 0xed,
  0x03, 0x0c, 0x0b, 0x08, 0xff, 0xf1, 0x09, 0xf7, 0x02, 0x02, 0xf7, 0x0e,
  0x02, 0xf8, 0x0e, 0x09, 0x0b, 0x0d, 0xef, 0xf4, 0xff, 0x07, 0xf3, 0x0b,
  0x0a, 0xf8, 0x00, 0xf0, 0x0d, 0x09, 0xf7, 0x00, 0x08, 0x06, 0x10, 0x0b,
  0x04, 0x00, 0xfd, 0x16, 0x01, 0xe4, 0x0c, 0x01, 0x05, 0x0d, 0x00, 0x0c,
  0x0b, 0xfd, 0xef, 0x01, 0xfb, 0xf4, 0xfa, 0xf7, 0x17, 0x03, 0x0a, 0x07,
  0x06, 0x11, 0x02, 0xf9, 0x07, 0x04, 0xf8, 0xee, 0x03, 0x05, 0xfc, 0xf5,
  0x02, 0xea, 0x0d, 0xf6, 0x08, 0x02, 0xfe, 0x0c, 0xe2, 0x06, 0x0c, 0x09,
  0x06, 0x20, 0xf1, 0x19, 0x00, 0x1c, 0xfd, 0xdb, 0xf6, 0xf6, 0xf9, 0x09,
  0xf1, 0x07, 0x02, 0xf3, 0xfb, 0x08, 0x04, 0x08, 0xe7, 0xfb, 0xfa, 0x18,
  0xe8, 0x32, 0x0d, 0x02, 0xee, 0x13, 0xc4, 0x0b, 0x17, 0x05, 0xe5, 0xe5,
  0xf8, 0xff, 0xfd, 0xfa, 0xf6, 0x0c, 0x09, 0x11, 0x0e, 0xef, 0x22, 0xee,
  0xf7, 0xfc, 0xef, 0xfb, 0xf7, 0x01, 0x07, 0xff, 0xf7, 0x0f, 0x0a, 0x07,
  0x09, 0x10, 0x18, 0xfd, 0xdc, 0x09, 0xfb, 0xf3, 0x0e, 0xf8, 0x03, 0x1b,
  0xf6, 0x04, 0x0a, 0x06, 0xed, 0x01, 0xec, 0xfb, 0xf8, 0xf8, 0xfd, 0xf2,
  0x0a, 0x05, 0x03, 0xf9, 0xdc, 0x02, 0x12, 0xe8, 0x05, 0x13, 0xf3, 0x28,
  0x10, 0x02, 0x15, 0x14, 0x04, 0x00, 0x06, 0xfb, 0x11, 0xfb, 0xf5, 0x10,
  0xfa, 0x08, 0xfc, 0xe3, 0x05, 0x0f, 0x00, 0x02, 0xf5, 0x12, 0x06, 0xfa,
  0x02, 0xfd, 0x01, 0xff, 0x10, 0xf8, 0xf5, 0xf6, 0x03, 0xe3, 0xfe, 0xdf,
  0x08, 0x27, 0xf8, 0x00, 0x01, 0x05, 0xfd, 0x05, 0x28, 0x04, 0xfb, 0xfe,
  0xff, 0xf9, 0xf8, 0xf7, 0x00, 0x05, 0x14, 0xf7, 0x1d, 0xf9, 0x10, 0xee,
  0x15, 0xf0, 0xe2, 0x10, 0x05, 0x06, 0x11, 0x1c, 0xf7, 0xfb, 0xf8, 0x07,
  0x08, 0x0a, 0xfd, 0xf6, 0xce, 0x0f, 0x0a, 0x27, 0x0a, 0x0d, 0x22, 0xf5,
  0x09, 0xf6, 0xf7, 0xf9, 0xe8, 0xf9, 0x04, 0xeb, 0xff, 0x1d, 0xfe, 0x06,
  0x25, 0xfd, 0x0b, 0xfc, 0xf1, 0xfa, 0xfe, 0x09, 0x02, 0x0d, 0x03, 0x05,
  0x20, 0x07, 0x1a, 0xe3, 0xf6, 0xff, 0xf6, 0x1e, 0xeb, 0xe4, 0x12, 0x36,
  0x1c, 0xf1, 0x0e, 0x15, 0x0b, 0xef, 0xf0, 0x00, 0xfe, 0xf4, 0xfe, 0x0a,
  0x03, 0xf4, 0x09, 0x08, 0x1f, 0x2a, 0x0b, 0x10, 0x07, 0x0a, 0xf8, 0xeb,
  0xf8, 0x28, 0x0b, 0xfe, 0x11, 0xfb, 0x00, 0x01, 0xf4, 0x07, 0x1e, 0x26,
  0x00, 0x01, 0x09, 0xf4, 0x07, 0x79, 0x13, 0x2c, 0x0a, 0xe3, 0x0b, 0xf7,
  0xf2, 0xf8, 0x04, 0xfa, 0x01, 0x01, 0xef, 0x02, 0x01, 0xff, 0x09, 0xf9,
  0x0c, 0xf8, 0xe7, 0xf7, 0x08, 0x18, 0x08, 0x19, 0x07, 0x15, 0x22, 0xf9,
  0x0c, 0x0c, 0xfd, 0xf0, 0x4e, 0x16, 0xf7, 0x02, 0xff, 0x00, 0x0a, 0xf7,
  0x40, 0xfe, 0xf2, 0x0e, 0xfb, 0x03, 0x15, 0xf3, 0x05, 0x10, 0x01, 0xf9,
  0x07, 0xfd, 0x0a, 0x1b, 0xe4, 0x13, 0xf8, 0xf9, 0x43, 0xfd, 0x06, 0x0b,
  0xfa, 0x04, 0x07, 0x14, 0xf4, 0x02, 0x08, 0x06, 0xfa, 0x08, 0x21, 0x10,
  0xf6, 0xe6, 0x18, 0xdb, 0x25, 0x5d, 0xf6, 0x29, 0xed, 0x02, 0xf4, 0xdb,
  0xf4, 0xf0, 0x08, 0x23, 0x00, 0xff, 0x1c, 0x28, 0x04, 0x4d, 0x02, 0xfb,
  0xfa, 0x30, 0xf5, 0x06, 0x07, 0xf4, 0x0d, 0x0a, 0x05, 0xe9, 0xf6, 0x0a,
  0x0f, 0x26, 0xfe, 0xfd, 0xfa, 0xe9, 0xd4, 0xdc, 0x09, 0x19, 0xf7, 0x01,
  0x0c, 0xd2, 0xf8, 0xee, 0xfa, 0xf4, 0x05, 0x1c, 0xd4, 0xfa, 0xff, 0x04,
  0xd2, 0x07, 0x0c, 0x0b, 0xf5, 0x07, 0xf4, 0xf9, 0x0c, 0xf6, 0x0b, 0x13,
  0xee, 0x14, 0x1c, 0xf3, 0x1a, 0x0a, 0x79, 0x12, 0x0d, 0xdf, 0x13, 0xe5,
  0x13, 0x09, 0xf7, 0x02, 0xfd, 0x0b, 0xfb, 0x1f, 0x40, 0x09, 0xdd, 0xf1,
  0x08, 0x03, 0xee, 0xf5, 0x02, 0x01, 0x24, 0x0a, 0x05, 0x11, 0x1b, 0xf6,
  0xf5, 0xc6, 0x0a, 0xef, 0xb6, 0x03, 0x06, 0x03, 0x1c, 0x0a, 0xf7, 0xf0,
  0xfa, 0x09, 0x08, 0x08, 0x05, 0x09, 0x17, 0x08, 0x0c, 0xf8, 0x27, 0xed,
  0xf4, 0xf7, 0xe2, 0xb4, 0x38, 0xf2, 0x1a, 0x20, 0xf6, 0xf1, 0x36, 0xdc,
  0x01, 0xff, 0x00, 0xf5, 0x13, 0xe9, 0x05, 0x10, 0xe7, 0xfd, 0xfc, 0x0e,
  0x08, 0x00, 0xfa, 0xf6, 0x0c, 0x12, 0xfc, 0x0d, 0xff, 0x1d, 0xf4, 0x1e,
  0xf5, 0x14, 0x27, 0xee, 0x07, 0x0b, 0xf7, 0x06, 0xfd, 0xd5, 0x27, 0xf8,
  0xf5, 0xe6, 0x0b, 0x2a, 0x01, 0x0c, 0x02, 0xf8, 0x00, 0xf5, 0x19, 0x03,
  0x03, 0x00, 0xfe, 0x00, 0x0b, 0x0b, 0xf5, 0x13, 0x00, 0xd1, 0xf9, 0xf7,
  0xfc, 0x0b, 0x2b, 0x09, 0xfd, 0x1d, 0xf6, 0x0d, 0xfe, 0x00, 0x04, 0x13,
  0x06, 0x05, 0xfe, 0x0b, 0x1f, 0x0d, 0xee, 0xe7, 0xfb, 0x0a, 0xfe, 0x0c,
  0xf8, 0x12, 0x12, 0x19, 0x13, 0x00, 0x03, 0x0b, 0x10, 0xd3, 0x04, 0x00,
  0xd9, 0x05, 0x09, 0x15, 0x11, 0x0b, 0x05, 0x01, 0xfe, 0x08, 0x03, 0xfd,
  0x04, 0xfe, 0x00, 0x0d, 0xf5, 0x1e, 0x06, 0x13, 0x15, 0xe4, 0xf0, 0xce,
  0x1b, 0x01, 0x00, 0x25, 0xfb, 0x17, 0x10, 0xeb, 0x10, 0xf4, 0xe2, 0xe8,
  0x15, 0xf6, 0xf9, 0xf3, 0xf1, 0xd7, 0xf8, 0x03, 0x03, 0xf6, 0xf5, 0x16,
  0x02, 0xfa, 0x05, 0xfd, 0x02, 0xf8, 0x0d, 0x07, 0xfe, 0x05, 0x00, 0xfd,
  0x09, 0x0c, 0xfb, 0x04, 0x0d, 0xcb, 0xeb, 0x0b, 0xf4, 0x28, 0x06, 0xf4,
  0x0d, 0xfa, 0xfd, 0x08, 0x07, 0x04, 0x0a, 0xfc, 0xfd, 0x0c, 0xf9, 0xf6,
  0x09, 0xff, 0x16, 0xf6, 0xf7, 0x13, 0x03, 0x12, 0x00, 0xec, 0xc2, 0x15,
  0x09, 0xe4, 0xf1, 0x09, 0xf4, 0x03, 0xfd, 0x05, 0xfb, 0xfa, 0x03, 0x0c,
  0x0c, 0xfa, 0x1d, 0x13, 0xfd, 0x04, 0xe3, 0x0a, 0x06, 0x00, 0xee, 0xf3,
  0xef, 0x06, 0x0d, 0xef, 0x16, 0x07, 0x07, 0x25, 0xdb, 0x03, 0x07, 0x0a,
  0x00, 0x01, 0xf7, 0x18, 0xfa, 0x05, 0xf9, 0xf9, 0x0d, 0x05, 0x11, 0xf5,
  0xf8, 0x15, 0xf6, 0x12, 0xfb, 0xda, 0x18, 0xdd, 0xed, 0x14, 0xfe, 0xfb,
  0xfd, 0x11, 0xe1, 0x17, 0x01, 0x01, 0x13, 0xf2, 0xf3, 0xd7, 0x08, 0x13,
  0x1c, 0x07, 0xf7, 0x00, 0x0b, 0x01, 0x05, 0xf0, 0xf3, 0x18, 0x0d, 0x07,
  0x00, 0x07, 0x0c, 0x0b, 0x06, 0x1c, 0x15, 0x1f, 0x05, 0x02, 0x07, 0x0b,
  0x04, 0xf8, 0x09, 0xf8, 0xfc, 0x2b, 0x09, 0xf6, 0x11, 0x01, 0x06, 0x05,
  0x10, 0xf7, 0x16, 0x07, 0x0a, 0x05, 0x07, 0xfa, 0x10, 0xfc, 0xef, 0x07,
  0x12, 0x10, 0xf2, 0xec, 0xee, 0xe8, 0xfd, 0x0b, 0x09, 0x0b, 0x0f, 0x0b,
  0xe9, 0x02, 0x05, 0x01, 0xf9, 0x0d, 0x09, 0xb4, 0xe1, 0xef, 0x24, 0x0f,
  0x01, 0x12, 0x18, 0x09, 0x09, 0x0b, 0xf5, 0xe7, 0xec, 0xf7, 0x02, 0xed,
  0xf8, 0x27, 0x1b, 0x04, 0x2a, 0xf6, 0x0c, 0x00, 0xed, 0x04, 0xfb, 0x11,
  0xf8, 0xfe, 0xf9, 0xfa, 0x17, 0xf8, 0xf5, 0x06, 0xf6, 0x0d, 0xee, 0x07,
  0xf7, 0xf6, 0x09, 0x6a, 0x01, 0xfc, 0x0e, 0x0a, 0x08, 0xf9, 0x09, 0x09,
  0x0e, 0xf7, 0x0d, 0x11, 0xf7, 0x19, 0xff, 0x00, 0x08, 0x36, 0x06, 0x0c,
  0x0c, 0x05, 0x0b, 0xfc, 0x03, 0x33, 0xfb, 0x0a, 0x0d, 0x13, 0xf4, 0xf6,
  0x0a, 0xfd, 0x08, 0xf7, 0x1f, 0xed, 0xf6, 0xf6, 0xf9, 0x3e, 0x16, 0x2b,
  0xf9, 0xd9, 0x08, 0xff, 0xf6, 0xfe, 0x0d, 0x02, 0xd6, 0xf9, 0x01, 0x0a,
  0xf5, 0x00, 0x01, 0xf5, 0x22, 0x0c, 0x00, 0xe0, 0xdf, 0xfd, 0xff, 0x14,
  0x29, 0x11, 0x33, 0x08, 0x16, 0xcb, 0xe7, 0xee, 0x65, 0x20, 0x06, 0xfd,
  0xff, 0xfd, 0x02, 0x1d, 0x78, 0x13, 0xe4, 0x10, 0xf4, 0x16, 0x1c, 0xf5,
  0xfc, 0xff, 0xfb, 0x13, 0x09, 0xf9, 0x00, 0x27, 0xe4, 0xfe, 0xf1, 0x0c,
  0x3d, 0xf9, 0xff, 0x13, 0xf9, 0x05, 0xf8, 0x17, 0xff, 0x03, 0xfb, 0xf8,
  0x16, 0xf7, 0x2f, 0x13, 0xfa, 0xef, 0x00, 0xe5, 0x29, 0x4d, 0x11, 0xec,
  0xe3, 0x03, 0xcc, 0xcf, 0xfe, 0xea, 0xe2, 0x10, 0x03, 0xfb, 0x38, 0xf2,
  0xef, 0x22, 0xfb, 0x10, 0x03, 0x3d, 0xf7, 0x06, 0xf6, 0xf4, 0x07, 0x0f,
  0x03, 0xc2, 0xf9, 0xff, 0x1d, 0x28, 0x08, 0xff, 0x0a, 0xf6, 0x02, 0xd9,
  0x0c, 0x0c, 0x0a, 0xfa, 0x00, 0xf4, 0xf5, 0xfa, 0x00, 0xf4, 0x02, 0x02,
  0xf3, 0x02, 0x00, 0x09, 0x09, 0xfb, 0xfb, 0xfc, 0x0c, 0x0a, 0xff, 0xfe,
  0xfb, 0xf8, 0xfc, 0xff, 0x0a, 0x07, 0xf8, 0xfe, 0xfc, 0x01, 0x08, 0xf7,
  0x06, 0xfb, 0x0c, 0x09, 0x09, 0xfa, 0x06, 0xf6, 0xfa, 0x0c, 0x01, 0x01,
  0x06, 0x00, 0xfb, 0x0b, 0xf8, 0xfc, 0xfe, 0x08, 0x0a, 0x06, 0xfc, 0xf7,
  0xfb, 0xfb, 0x04, 0xfa, 0x0b, 0x02, 0xf8, 0xfd, 0x03, 0xfc, 0xfb, 0xfb,
  0x02, 0xf5, 0x0b, 0xfc, 0x08, 0xf3, 0xfc, 0x01, 0xf7, 0x0d, 0x05, 0xff,
  0x01, 0x09, 0xfa, 0x05, 0x07, 0x09, 0x04, 0x04, 0xf6, 0x0b, 0xfb, 0xf5,
  0x0a, 0x03, 0x09, 0x03, 0xf9, 0x06, 0xfc, 0xf9, 0xf9, 0x0b, 0xfb, 0xfc,
  0xf8, 0xfc, 0xfe, 0x04, 0xfe, 0xfb, 0x02, 0x06, 0x08, 0xfc, 0x09, 0x03,
  0xf6, 0x0c, 0x06, 0xf7, 0x02, 0xf4, 0xfc, 0xfa, 0xf2, 0x1d, 0x02, 0xfc,
  0x06, 0xbe, 0xf6, 0x00, 0x06, 0x20, 0xf7, 0xfc, 0xf6, 0xfa, 0x05, 0x04,
  0xf5, 0xf7, 0x0d, 0xf7, 0xfd, 0x01, 0xfa, 0x0a, 0x0e, 0x00, 0x0e, 0x17,
  0xf2, 0x21, 0x0f, 0xeb, 0xe4, 0xf1, 0xfb, 0x03, 0x0c, 0xea, 0xef, 0x16,
  0xd3, 0xf1, 0x03, 0x0d, 0x02, 0x05, 0xf5, 0x28, 0x08, 0xfe, 0x19, 0xfc,
  0x0a, 0x0a, 0xe7, 0x04, 0xf7, 0x0c, 0x09, 0x01, 0xf8, 0x0e, 0x06, 0xdf,
  0x1f, 0xec, 0x0b, 0x10, 0xbe, 0xf6, 0xf6, 0x0b, 0x12, 0xf8, 0xfe, 0xf9,
  0x08, 0x06, 0x0a, 0xfe, 0x0b, 0x0c, 0xfd, 0x07, 0x07, 0x09, 0x06, 0x1b,
  0xf4, 0xd2, 0x00, 0xd8, 0x12, 0x0f, 0x12, 0x1f, 0x01, 0xfe, 0x06, 0x02,
  0x10, 0x0b, 0xfc, 0xe2, 0x05, 0xec, 0x05, 0x02, 0x02, 0xf1, 0x03, 0x02,
  0xfb, 0x00, 0xff, 0xf8, 0x03, 0x0d, 0x0a, 0x07, 0x03, 0xe9, 0xfa, 0xfa,
  0x07, 0x06, 0x1b, 0x15, 0xff, 0xf9, 0xf5, 0x06, 0xf4, 0xd8, 0xf8, 0x36,
  0x02, 0x06, 0x04, 0xfc, 0x20, 0xf8, 0xfe, 0xf6, 0xf8, 0x08, 0xfb, 0xf4,
  0x08, 0xf3, 0xf5, 0xf4, 0x01, 0x02, 0x07, 0x08, 0x0c, 0x42, 0xfd, 0x0f,
  0xe5, 0x04, 0xd9, 0xf3, 0x06, 0xdf, 0x0f, 0x30, 0xe8, 0xe0, 0xf6, 0xfb,
  0x03, 0x0c, 0x02, 0x10, 0xaf, 0xef, 0x30, 0x10, 0xf7, 0xff, 0x03, 0x08,
  0xf7, 0xf1, 0xf6, 0x0a, 0x08, 0x00, 0x11, 0xe8, 0x08, 0x0f, 0xf7, 0x02,
  0x10, 0x04, 0x07, 0x0d, 0x04, 0x01, 0xf5, 0xf6, 0x0a, 0xf6, 0xfd, 0xf6,
  0x0b, 0xf5, 0x20, 0x0a, 0x08, 0x08, 0xf6, 0x06, 0x00, 0xf3, 0x01, 0x1f,
  0x02, 0xfc, 0xf5, 0xfd, 0x0b, 0x0f, 0xe6, 0x17, 0x02, 0x00, 0x27, 0xdd,
  0x0d, 0x32, 0xf7, 0xfc, 0x18, 0x11, 0x00, 0x10, 0x01, 0x09, 0xf4, 0xf8,
  0x03, 0xd8, 0x02, 0xfa, 0x12, 0xed, 0xf4, 0x02, 0x0c, 0x0a, 0xe1, 0x37,
  0x05, 0xfb, 0x00, 0xfd, 0x05, 0x05, 0x01, 0x02, 0x06, 0xfd, 0x0c, 0x0a,
  0x00, 0xf4, 0xf4, 0x07, 0x0c, 0xf9, 0xfe, 0x01, 0x0b, 0x03, 0x01, 0xf8,
  0x07, 0xfe, 0xfa, 0x03, 0x09, 0xf6, 0x02, 0xf3, 0xfe, 0x00, 0xfa, 0xf7,
  0x0a, 0xf8, 0xf9, 0x0b, 0x09, 0xf6, 0x06, 0x0a, 0x02, 0x09, 0x0c, 0x03,
  0x04, 0x03, 0x06, 0x0d, 0x0c, 0xfe, 0x01, 0xfc, 0xfe, 0xf1, 0x07, 0xfe,
  0xf7, 0x09, 0xf5, 0x05, 0x09, 0xf9, 0x0b, 0x07, 0x06, 0x03, 0xfa, 0xf8,
  0xf5, 0xf8, 0xfa, 0x0a, 0x06, 0xf9, 0xf5, 0x02, 0x06, 0x03, 0x01, 0xfd,
  0xf6, 0xf4, 0x09, 0xf1, 0x02, 0xf1, 0xf3, 0xfb, 0xf1, 0xf1, 0xf3, 0x05,
  0x0c, 0xfa, 0xf4, 0xfe, 0xf2, 0x08, 0x04, 0x09, 0xf3, 0x0a, 0x07, 0xfc,
  0x02, 0xf5, 0xf3, 0xfa, 0xfd, 0xfe, 0xf8, 0xf3, 0x06, 0xf9, 0x07, 0x0b,
  0xf8, 0xfc, 0xf4, 0x07, 0xf7, 0x07, 0x09, 0x00, 0x00, 0xf0, 0xfc, 0xf5,
  0xff, 0x26, 0xf2, 0x36, 0xf4, 0xe8, 0xfd, 0x00, 0xfd, 0xfc, 0x0d, 0xf7,
  0xf5, 0x0a, 0x01, 0xfb, 0x06, 0xfa, 0x08, 0x03, 0x0b, 0xf5, 0x1b, 0xe5,
  0xdd, 0x3d, 0xf9, 0x33, 0x21, 0x10, 0xe0, 0x05, 0x15, 0xd2, 0xda, 0xee,
  0x4b, 0x17, 0xfd, 0x08, 0x09, 0xfb, 0x00, 0x23, 0x1c, 0xfd, 0xf9, 0x04,
  0x05, 0xf9, 0x00, 0x02, 0x03, 0x0e, 0xf1, 0xfc, 0x1f, 0x14, 0x0f, 0x0c,
  0xe8, 0x0c, 0xf5, 0x27, 0x5a, 0xfb, 0x09, 0x0d, 0xf9, 0xf3, 0xfe, 0x01,
  0x0b, 0xfb, 0xf6, 0xf9, 0xf9, 0xfc, 0x13, 0x23, 0xf4, 0xee, 0x05, 0xfd,
  0x13, 0x44, 0x10, 0x1a, 0xe3, 0xf4, 0xd9, 0xd1, 0x05, 0xfe, 0xde, 0x1a,
  0x04, 0x01, 0x38, 0xea, 0xff, 0x11, 0xfa, 0x10, 0x10, 0x33, 0xfa, 0xfc,
  0x06, 0x05, 0xf5, 0xee, 0x03, 0xde, 0x06, 0x08, 0x17, 0x1d, 0xf9, 0x04,
  0xf5, 0x0d, 0x0d, 0xfd, 0x20, 0x05, 0x04, 0xfb, 0xfb, 0x2a, 0x16, 0x00,
  0xfe, 0x1e, 0x06, 0xec, 0xf3, 0xf6, 0x03, 0x0b, 0xf3, 0x05, 0xee, 0xf5,
  0xfa, 0xf6, 0x08, 0xf5, 0x19, 0xf6, 0xec, 0x06, 0x38, 0x0a, 0x10, 0xfb,
  0xf1, 0xf2, 0x49, 0x00, 0x05, 0xff, 0x34, 0xe1, 0x11, 0x11, 0x06, 0x08,
  0x02, 0xfd, 0xf7, 0xe8, 0x25, 0x05, 0x16, 0x19, 0x0d, 0x16, 0x1d, 0x0b,
  0xfc, 0x0e, 0xfb, 0xf1, 0xf0, 0x01, 0x0f, 0xf8, 0xfb, 0x17, 0x0f, 0xeb,
  0xce, 0xfc, 0xf6, 0xf3, 0xf0, 0xfe, 0x06, 0xfb, 0x0d, 0x07, 0xfc, 0x06,
  0x17, 0xfd, 0x21, 0xe6, 0x00, 0xed, 0x07, 0xd8, 0x00, 0x31, 0xee, 0x15,
  0x24, 0x07, 0x12, 0xeb, 0x05, 0xe8, 0x1a, 0x01, 0x01, 0x09, 0x0a, 0x2b,
  0x08, 0x33, 0xfe, 0x13, 0xec, 0x2e, 0x05, 0x14, 0xfe, 0xf6, 0x05, 0x04,
  0xf3, 0x09, 0xf8, 0xf8, 0x29, 0x25, 0x04, 0x04, 0x0a, 0xe8, 0xe1, 0xf7,
  0x1a, 0xef, 0xf5, 0x0a, 0x0a, 0x2b, 0x10, 0x0b, 0xf6, 0x10, 0x01, 0xf4,
  0x00, 0x08, 0x05, 0xf6, 0xfa, 0x0a, 0x02, 0xf6, 0xff, 0xfc, 0xf6, 0xf8,
  0x05, 0x00, 0xee, 0xfe, 0x35, 0xf6, 0x0b, 0xf5, 0xed, 0xfc, 0x37, 0x06,
  0x10, 0x00, 0x1b, 0xfd, 0x11, 0x08, 0x04, 0x05, 0xf5, 0x09, 0xfa, 0xee,
  0x0d, 0x03, 0x17, 0x17, 0x01, 0x01, 0x2a, 0xff, 0xfa, 0xf8, 0xf3, 0xf9,
  0xf6, 0xfd, 0x01, 0xfb, 0x08, 0x1e, 0x03, 0xdc, 0xda, 0x06, 0x05, 0xfe,
  0x02, 0x08, 0x07, 0xfe, 0x0a, 0xf5, 0xfe, 0xf9, 0x1b, 0xfd, 0x27, 0xe5,
  0xfa, 0xf1, 0x00, 0xeb, 0x05, 0x12, 0xf8, 0x07, 0x21, 0x09, 0x0d, 0xf4,
  0x0c, 0xfb, 0x07, 0x15, 0xfd, 0x0b, 0x1a, 0x1e, 0x0c, 0x2e, 0x01, 0x01,
  0xf7, 0x20, 0x02, 0x0e, 0xf8, 0xf5, 0x05, 0x10, 0x08, 0x03, 0xf3, 0x05,
  0x27, 0x19, 0x08, 0xfc, 0x09, 0xe2, 0xcd, 0x20, 0x00, 0xf5, 0x05, 0xf9,
  0xf8, 0xf3, 0x05, 0x0a, 0x09, 0xf7, 0xf5, 0x05, 0x01, 0xf5, 0xfb, 0x01,
  0x04, 0x07, 0xf7, 0xfc, 0x09, 0xfd, 0xf8, 0xf8, 0x06, 0x01, 0xf9, 0x08,
  0x09, 0x09, 0xfa, 0xfb, 0xfd, 0x02, 0x06, 0x08, 0xf5, 0x0c, 0x0a, 0xf4,
  0xfe, 0xf5, 0xf9, 0x03, 0xfd, 0xfc, 0xf6, 0xf5, 0x04, 0xff, 0x01, 0x04,
  0x0a, 0xfe, 0x00, 0x04, 0xf4, 0xfd, 0x00, 0xfc, 0xfc, 0x09, 0x03, 0xfd,
  0x0b, 0x04, 0x02, 0x0b, 0x0a, 0x06, 0xfe, 0xf8, 0xf4, 0xf7, 0x04, 0x01,
  0xfe, 0x0d, 0xff, 0x05, 0xf5, 0x00, 0x09, 0x00, 0x04, 0xf7, 0x0b, 0xf6,
  0xf8, 0x0a, 0xfe, 0xf7, 0x05, 0xf5, 0x01, 0xfa, 0xf4, 0x07, 0x09, 0x06,
  0x0a, 0x04, 0xf4, 0xf3, 0xf5, 0xf4, 0x08, 0x04, 0x04, 0xfb, 0xfa, 0x01,
  0xf4, 0x01, 0x07, 0x0a, 0xfe, 0xfa, 0xfe, 0x02, 0x0b, 0xf7, 0xf9, 0xf9,
  0xff, 0x00, 0xfe, 0xfb, 0xf8, 0xf9, 0x00, 0xff, 0x05, 0xfd, 0x07, 0x09,
  0xfa, 0xfe, 0xf6, 0xf6, 0x07, 0xfe, 0x01, 0x02, 0xf2, 0xf9, 0xfc, 0xf8,
  0xf3, 0x00, 0xff, 0x0c, 0xf3, 0xfa, 0x0e, 0x00, 0xfd, 0xfa, 0x08, 0xfd,
  0x0c, 0x03, 0x01, 0x0c, 0xf5, 0x0b, 0xf5, 0xf4, 0xf7, 0x0b, 0xf5, 0xf3,
  0xf8, 0x0a, 0x00, 0xf0, 0xfe, 0x07, 0x0c, 0x01, 0x06, 0xf9, 0xfa, 0x08,
  0xf3, 0x04, 0xfa, 0x00, 0x08, 0x05, 0x09, 0xf6, 0xf4, 0xef, 0x08, 0x03,
  0x07, 0x0c, 0x08, 0xf8, 0x0b, 0x08, 0x0a, 0xf4, 0x01, 0x08, 0xf5, 0xf4,
  0xf6, 0x04, 0xfc, 0xf9, 0x0c, 0x08, 0x00, 0xfa, 0xf6, 0xfd, 0x06, 0x09,
  0xfd, 0x00, 0x0c, 0x05, 0x08, 0xfe, 0x07, 0xf8, 0x01, 0x05, 0xfb, 0x02,
  0xff, 0xf8, 0x09, 0xf8, 0x03, 0x00, 0x05, 0xf3, 0x06, 0x0c, 0xff, 0x0b,
  0x00, 0xfe, 0xff, 0x09, 0x07, 0xff, 0x06, 0xf6, 0x00, 0x0d, 0x04, 0x02,
  0xf5, 0x04, 0x05, 0x05, 0xf4, 0xf4, 0xfb, 0xf9, 0xf8, 0xfb, 0xf5, 0xf8,
  0xf4, 0xfe, 0xff, 0x02, 0xfb, 0xf4, 0x03, 0x0a, 0xf6, 0xf5, 0xf4, 0xff,
  0x03, 0x0c, 0x01, 0xfc, 0xf7, 0xfc, 0xf2, 0xfb, 0x09, 0x05, 0x0a, 0x0c,
  0xf6, 0x0a, 0xfb, 0x05, 0xff, 0x04, 0xf8, 0xfe, 0x05, 0xfc, 0x01, 0xfb,
  0x06, 0x0b, 0x05, 0xf9, 0xf3, 0x00, 0xff, 0xfa, 0xf7, 0xf8, 0x0b, 0xf8,
  0x08, 0xfd, 0xff, 0xf8, 0xfb, 0x04, 0x05, 0x09, 0xfa, 0x00, 0x08, 0xf6,
  0xfb, 0xfc, 0xfd, 0xf8, 0xf6, 0x03, 0xf6, 0xfb, 0x06, 0x05, 0x04, 0x0a,
  0x03, 0xf7, 0x05, 0x0b, 0x03, 0xfd, 0xf7, 0x01, 0x0b, 0x01, 0xff, 0xfe,
  0xf9, 0x0c, 0x07, 0x02, 0xf5, 0x03, 0x08, 0xf9, 0xf4, 0x05, 0x08, 0xf4,
  0x00, 0xf8, 0xf6, 0x05, 0x06, 0x03, 0xfd, 0xfc, 0x02, 0x00, 0xf9, 0x09,
  0x05, 0x07, 0xf5, 0xfc, 0xf7, 0xf7, 0xf3, 0xf6, 0x12, 0x00, 0xf8, 0xf7,
  0xfc, 0xfc, 0x09, 0xfe, 0xfb, 0x00, 0xff, 0x0e, 0x12, 0xf6, 0x0b, 0x04,
  0x07, 0xf9, 0x18, 0xf5, 0xf7, 0xfa, 0xf5, 0x05, 0x15, 0x07, 0xe8, 0xef,
  0xfc, 0xcb, 0xfd, 0x06, 0x08, 0x05, 0x05, 0xfb, 0xfc, 0x0c, 0x02, 0x08,
  0x0f, 0x10, 0x02, 0x0e, 0x0c, 0x02, 0xfb, 0xdf, 0x23, 0x0f, 0xfd, 0x11,
  0x05, 0x10, 0x19, 0x09, 0xfa, 0x0e, 0xf0, 0x0c, 0x06, 0xff, 0xf4, 0x1a,
  0xf9, 0xf7, 0x02, 0x08, 0x10, 0xfa, 0x0a, 0x08, 0xfb, 0x06, 0xf9, 0xf5,
  0x00, 0xf6, 0x04, 0xff, 0x0e, 0x04, 0x1c, 0x09, 0x0a, 0x0a, 0xed, 0x0a,
  0x08, 0xec, 0x0e, 0xf4, 0x02, 0x10, 0xe1, 0xed, 0x03, 0x0a, 0xe0, 0xfd,
  0x0c, 0x0c, 0xfe, 0x03, 0xf1, 0xed, 0xfd, 0xfc, 0x0a, 0xfb, 0x09, 0xfe,
  0xf4, 0x07, 0xf8, 0x1c, 0xfc, 0x07, 0x03, 0x0b, 0x04, 0xfe, 0x00, 0xf9,
  0xf8, 0xeb, 0x01, 0x03, 0xf8, 0xfa, 0xf3, 0x02, 0xfa, 0x04, 0xf7, 0x02,
  0x03, 0x04, 0x00, 0xfd, 0xfc, 0x03, 0xf7, 0x04, 0xf8, 0x07, 0x02, 0x06,
  0xfd, 0x0b, 0x0d, 0xf4, 0xf4, 0xf3, 0xf5, 0xf7, 0x09, 0xf5, 0x07, 0xfd,
  0xf3, 0xf9, 0x01, 0x0b, 0x04, 0xf2, 0x01, 0xf5, 0x06, 0xf1, 0xfd, 0xf3,
  0x05, 0x01, 0xfe, 0xfc, 0xef, 0xfa, 0x05, 0xfd, 0xf9, 0xf4, 0xfb, 0xff,
  0xf4, 0xfe, 0xf7, 0x04, 0xf5, 0x03, 0x02, 0xf2, 0xfa, 0xfc, 0x05, 0x08,
  0x08, 0xfb, 0xfd, 0xfc, 0x09, 0xff, 0xf4, 0xf5, 0xfc, 0x02, 0x00, 0x09,
  0x07, 0xfc, 0xff, 0x04, 0xfd, 0x01, 0xf8, 0x03, 0xfc, 0x01, 0xfc, 0x06,
  0xf3, 0xfb, 0x07, 0x04, 0x00, 0xf9, 0xf7, 0xfc, 0x07, 0x09, 0x03, 0x03,
  0xfa, 0xf5, 0xf3, 0xf3, 0xf9, 0x03, 0x0c, 0x03, 0xfd, 0xfa, 0x09, 0x08,
  0xfc, 0x07, 0x05, 0x01, 0xf5, 0xf7, 0x09, 0x03, 0xf4, 0xf4, 0x0a, 0x00,
  0x08, 0xf6, 0x07, 0xfc, 0xf3, 0xf5, 0x07, 0xf4, 0x00, 0x03, 0x06, 0xf8,
  0xf4, 0xf9, 0xf7, 0x08, 0x03, 0xfe, 0x07, 0x01, 0x00, 0x07, 0xf7, 0x05,
  0xf3, 0xfe, 0xf4, 0x05, 0xf6, 0x00, 0x09, 0x03, 0xfa, 0x04, 0xf2, 0xf6,
  0xf6, 0xf3, 0x06, 0x09, 0xf4, 0xf6, 0x0a, 0xfa, 0x02, 0x01, 0x05, 0xfc,
  0xf8, 0x05, 0x07, 0x00, 0x04, 0xfc, 0x03, 0x08, 0xfd, 0x01, 0xfd, 0xf4,
  0xfd, 0xf9, 0x08, 0x01, 0xfe, 0xf8, 0xfb, 0xf6, 0xf8, 0xf8, 0xf5, 0xf8,
  0x00, 0xfb, 0xfb, 0xfd, 0xfc, 0xf7, 0x01, 0xf5, 0xf9, 0xf6, 0xf8, 0xfb,
  0xf7, 0xfc, 0x08, 0xf9, 0x08, 0xf6, 0xf6, 0x08, 0xf8, 0x04, 0x0a, 0x09,
  0xf5, 0x00, 0x09, 0xf8, 0x03, 0xfa, 0x08, 0x06, 0xf5, 0xf6, 0xfe, 0xf6,
  0x01, 0x08, 0xf8, 0xf5, 0x0d, 0xfb, 0x03, 0xfd, 0xff, 0x06, 0xff, 0x07,
  0x0a, 0x0a, 0x09, 0x02, 0x06, 0x07, 0x08, 0xfa, 0x1f, 0xf8, 0x00, 0xf9,
  0xfd, 0x06, 0x03, 0xf2, 0x09, 0x17, 0x05, 0x11, 0x00, 0xf8, 0xff, 0xf9,
  0x3c, 0x08, 0x01, 0x0c, 0xfb, 0x0b, 0xf7, 0x0c, 0xf7, 0x04, 0xd7, 0xfa,
  0x2f, 0xd1, 0x05, 0xed, 0xee, 0xeb, 0x09, 0x09, 0xfb, 0x34, 0x2b, 0xeb,
  0x03, 0xf9, 0xfe, 0x11, 0xfb, 0x02, 0xf7, 0xb5, 0xe5, 0x09, 0xf9, 0x04,
  0xff, 0x02, 0x1c, 0xfe, 0xf5, 0x0e, 0x0a, 0x08, 0x07, 0xf2, 0xeb, 0x00,
  0xf6, 0x0a, 0x02, 0xec, 0x4e, 0xf8, 0xfb, 0xf9, 0xed, 0x0c, 0xfc, 0xf6,
  0x01, 0x01, 0xfc, 0xf8, 0x1b, 0xfe, 0xd8, 0xe9, 0xf6, 0x11, 0xfc, 0x08,
  0x0d, 0x1d, 0xfe, 0x3e, 0x29, 0x0c, 0x1b, 0x06, 0xf8, 0xe9, 0x23, 0xf2,
  0x04, 0x06, 0xd2, 0x12, 0xfe, 0xee, 0x03, 0x0e, 0xfd, 0x08, 0xf3, 0xfd,
  0xf5, 0x08, 0x04, 0xff, 0xfd, 0x2c, 0xfd, 0xf7, 0x04, 0xf5, 0x0a, 0xf5,
  0xf6, 0xdd, 0xe1, 0xe9, 0xf8, 0xf7, 0x03, 0x00, 0x04, 0xfe, 0xff, 0x02,
  0x0d, 0xfb, 0x01, 0x06, 0x01, 0x04, 0xf7, 0x03, 0xff, 0xf6, 0xfc, 0xfb,
  0xfa, 0xf6, 0xfd, 0x0d, 0xf8, 0x06, 0x05, 0xf7, 0x02, 0x02, 0xfb, 0xf7,
  0x0a, 0xff, 0xfd, 0xf7, 0x01, 0xf2, 0x07, 0xfe, 0xfb, 0x00, 0x0b, 0xf3,
  0x0a, 0x0a, 0xfd, 0x07, 0x03, 0x05, 0xfc, 0xf4, 0xff, 0xfa, 0x0a, 0xf6,
  0x0a, 0xfe, 0x0a, 0xf4, 0x05, 0xfb, 0x06, 0xf5, 0xfb, 0xf7, 0xf4, 0x0c,
  0xf9, 0xf5, 0x06, 0xf7, 0xfd, 0x0d, 0x09, 0x04, 0x02, 0xfe, 0xf9, 0xf6,
  0xf9, 0x05, 0x07, 0xf2, 0xf4, 0x06, 0x02, 0x00, 0x0b, 0xff, 0x0a, 0xf4,
  0xfb, 0xfc, 0xff, 0xf5, 0x0d, 0xf6, 0x0c, 0xfc, 0x0b, 0xff, 0xfd, 0xf7,
  0x03, 0x00, 0xf8, 0x05, 0xfa, 0x04, 0xfb, 0xf2, 0xf6, 0x07, 0x00, 0x03,
  0x0b, 0xfc, 0x07, 0xfa, 0x0c, 0xf5, 0xf8, 0xf3, 0x0b, 0x09, 0x06, 0x00,
  0x07, 0x06, 0xfc, 0x09, 0xf5, 0x08, 0xfb, 0xf9, 0x05, 0xfe, 0x08, 0xfe,
  0x05, 0xf7, 0xf5, 0xf9, 0xfd, 0x01, 0x02, 0xf6, 0x0a, 0x01, 0x0b, 0xf7,
  0xfc, 0x0c, 0xfb, 0xf2, 0x04, 0x0a, 0xf8, 0x08, 0x05, 0xf6, 0xfd, 0x0a,
  0x0c, 0x09, 0x00, 0xfd, 0xf8, 0x02, 0x09, 0xfc, 0xfb, 0x0a, 0xfc, 0xfa,
  0xf8, 0x08, 0x08, 0x0b, 0xfc, 0x06, 0x05, 0xfe, 0xfe, 0x03, 0xf9, 0xf4,
  0xf7, 0x01, 0x04, 0x0c, 0x02, 0xfc, 0xf4, 0x09, 0x06, 0xf9, 0x00, 0x00,
  0x01, 0x09, 0xf4, 0xf9, 0xf9, 0xf5, 0x02, 0xf8, 0xf2, 0xff, 0x09, 0xfe,
  0xf5, 0xf8, 0xf3, 0xf5, 0xf8, 0xfb, 0x00, 0xf3, 0xf3, 0xf6, 0xf4, 0x08,
  0xfb, 0xfe, 0xf8, 0xf9, 0xf5, 0x08, 0xf5, 0xf9, 0x0b, 0x05, 0x00, 0x06,
  0x0a, 0xf4, 0x01, 0x02, 0xfb, 0x00, 0x07, 0xfc, 0x09, 0x00, 0x05, 0x09,
  0xfa, 0x07, 0x09, 0xf3, 0x04, 0xf9, 0x03, 0xf7, 0xe2, 0x0b, 0x06, 0x08,
  0xfa, 0x14, 0x32, 0xf9, 0x03, 0xed, 0x03, 0xd5, 0x07, 0xfb, 0xf4, 0xf7,
  0x25, 0xf8, 0xf3, 0x0a, 0x05, 0x0b, 0xfe, 0x09, 0xef, 0x06, 0xdb, 0x07,
  0x1e, 0x34, 0xfa, 0xe9, 0xd9, 0x19, 0x21, 0xfb, 0x04, 0x2a, 0x23, 0x00,
  0x03, 0x0b, 0x08, 0xf4, 0x05, 0x09, 0x00, 0xe4, 0xe7, 0x06, 0xfc, 0x20,
  0x0d, 0xfb, 0xfe, 0x04, 0x03, 0x01, 0x22, 0xe4, 0xf9, 0x05, 0x07, 0x14,
  0x01, 0x2b, 0x15, 0x2b, 0x0b, 0xfd, 0xfd, 0xe0, 0x09, 0xf8, 0x01, 0xee,
  0x0c, 0xf7, 0xf9, 0x05, 0xdd, 0xf7, 0xff, 0xed, 0xf4, 0xd9, 0x26, 0xd4,
  0x16, 0x1f, 0xf3, 0x03, 0x22, 0x04, 0x40, 0xe3, 0xf3, 0xfa, 0x43, 0xff,
  0xed, 0xf6, 0xd3, 0x2d, 0x19, 0x1a, 0xf5, 0xfd, 0xd5, 0x12, 0xfb, 0xfe,
  0x0b, 0xfc, 0x0b, 0x06, 0x0c, 0x2c, 0xff, 0x0d, 0xf3, 0x0a, 0xf7, 0xf0,
  0xf4, 0xdc, 0xf0, 0x04, 0x05, 0x12, 0x06, 0x00, 0xfd, 0x05, 0x16, 0xd9,
  0xf4, 0xfc, 0xff, 0xe7, 0xfb, 0xf6, 0xf4, 0x07, 0x1c, 0xfd, 0xef, 0x09,
  0xf9, 0xf7, 0xfb, 0x06, 0xe6, 0x06, 0xcf, 0x12, 0x1b, 0x0c, 0x18, 0xd3,
  0xe0, 0x05, 0x3d, 0x06, 0x00, 0x30, 0x2d, 0xe9, 0xf9, 0x03, 0xf9, 0x07,
  0x00, 0xfc, 0xf6, 0xdd, 0xca, 0x02, 0xe4, 0x16, 0xfa, 0x07, 0xfc, 0x0d,
  0x01, 0x10, 0x17, 0xd6, 0xe1, 0xf5, 0x04, 0x06, 0xfa, 0x1b, 0x16, 0x1a,
  0xee, 0xfb, 0xf7, 0xe0, 0xfc, 0xfe, 0xf7, 0x02, 0xfe, 0xfb, 0xf4, 0xfd,
  0xf8, 0x08, 0x09, 0xdb, 0xf8, 0xe8, 0x1d, 0xef, 0x09, 0xfe, 0xec, 0x16,
  0x2b, 0x02, 0x3b, 0xf3, 0xf6, 0xf1, 0x4b, 0xef, 0xf9, 0xfc, 0xbc, 0x27,
  0x12, 0x20, 0xfe, 0x0e, 0xd9, 0x18, 0xfb, 0x04, 0x0a, 0x06, 0xf7, 0x19,
  0xfe, 0x27, 0x02, 0x08, 0x04, 0x11, 0xff, 0xf0, 0x0c, 0xd5, 0xf1, 0xfe,
  0x04, 0xf6, 0x04, 0x04, 0xf6, 0xee, 0xf8, 0x24, 0xf5, 0x03, 0xf6, 0x02,
  0x14, 0x0d, 0xfc, 0xf5, 0x04, 0xfc, 0x15, 0x02, 0x0a, 0xfc, 0xff, 0x09,
  0x13, 0x07, 0x2b, 0xf2, 0xd9, 0xed, 0xf9, 0x2a, 0x1d, 0x09, 0xaf, 0x08,
  0xf5, 0xe6, 0xd3, 0x1b, 0x2e, 0x07, 0xf9, 0x0a, 0xf9, 0x0b, 0x0a, 0x27,
  0x17, 0x12, 0x07, 0xfd, 0x04, 0x01, 0xf7, 0xfd, 0xfe, 0x09, 0xff, 0x15,
  0x2f, 0x12, 0x0a, 0x13, 0xfc, 0x05, 0xff, 0x20, 0x40, 0xf6, 0x08, 0x1c,
  0x0d, 0x03, 0xf5, 0x0b, 0x05, 0xff, 0x06, 0xf7, 0xff, 0x08, 0xf4, 0x23,
  0xfd, 0x18, 0xec, 0x2f, 0x0c, 0x00, 0x23, 0xfc, 0xd6, 0x0b, 0xde, 0xea,
  0xf9, 0x0c, 0xcb, 0x07, 0x13, 0x0c, 0x10, 0xe9, 0x08, 0xe0, 0xfb, 0xf6,
  0x20, 0xed, 0x0a, 0x00, 0x00, 0x08, 0xfb, 0x04, 0x07, 0xd4, 0xf5, 0xfe,
  0xfe, 0xec, 0xf4, 0x0d, 0x09, 0x1e, 0x13, 0x11, 0x12, 0x07, 0xfc, 0xfa,
  0x04, 0x1f, 0x1a, 0x11, 0xf6, 0x0b, 0x0d, 0xf1, 0x19, 0xfe, 0x06, 0x0a,
  0x31, 0xfc, 0x0d, 0x0c, 0x03, 0x04, 0xf5, 0xf9, 0x0d, 0xfa, 0xf9, 0xfd,
  0x1b, 0xda, 0xf4, 0xf9, 0xe2, 0xfd, 0xde, 0x00, 0x03, 0x1b, 0x10, 0x1c,
  0xee, 0x0f, 0x01, 0x0b, 0xf4, 0xfb, 0xf5, 0xa3, 0xf6, 0x0b, 0x12, 0x0f,
  0x05, 0x01, 0x2c, 0x06, 0x0a, 0x0d, 0xf3, 0xfc, 0x00, 0xfe, 0xff, 0x26,
  0x09, 0x18, 0x07, 0x05, 0x2d, 0xf9, 0xf8, 0xfb, 0x02, 0xfe, 0x08, 0x0c,
  0xfb, 0xfe, 0xf7, 0x08, 0x06, 0x03, 0xdc, 0xfc, 0xf8, 0x16, 0xf1, 0x05,
  0x09, 0xf2, 0x0e, 0x3b, 0xed, 0x0c, 0xf5, 0xfa, 0xfd, 0x11, 0xe6, 0x0c,
  0x11, 0xf9, 0xff, 0x0e, 0xf1, 0x2b, 0xfe, 0xfc, 0x01, 0x10, 0x06, 0x10,
  0x06, 0x0b, 0x08, 0x0d, 0x0c, 0x06, 0xf9, 0xf9, 0x0c, 0xfa, 0xf8, 0xf1,
  0xf5, 0xe6, 0xd5, 0x12, 0xea, 0x07, 0x00, 0x0b, 0x01, 0xf9, 0xf4, 0x05,
  0xf6, 0xf7, 0x06, 0x08, 0x00, 0x01, 0xfa, 0x0b, 0xf6, 0x04, 0xff, 0x02,
  0xfd, 0x06, 0x04, 0xf4, 0x00, 0xfd, 0x06, 0x11, 0xef, 0x39, 0x0c, 0xfe,
  0x0a, 0x07, 0x02, 0x05, 0x0e, 0xe2, 0xf5, 0x07, 0x08, 0xfa, 0x02, 0xf6,
  0x03, 0xfb, 0xfc, 0x33, 0x20, 0x02, 0x11, 0xf5, 0x01, 0x0a, 0xe0, 0x0a,
  0x05, 0x07, 0x1a, 0x0e, 0x02, 0x14, 0x12, 0xf7, 0x0b, 0xe0, 0x0d, 0x1e,
  0xc9, 0xfa, 0x0b, 0x0e, 0x08, 0xf7, 0x0a, 0x08, 0x04, 0x03, 0xf7, 0xfe,
  0xf9, 0x03, 0x07, 0x26, 0x04, 0xfe, 0x07, 0x06, 0xf7, 0xfd, 0x04, 0xc8,
  0xef, 0x0f, 0x0f, 0xf9, 0xfa, 0x01, 0xfc, 0xf9, 0x08, 0x0b, 0x12, 0xf4,
  0x02, 0xdf, 0x00, 0xf7, 0xfa, 0xe9, 0x0e, 0x06, 0xf9, 0x0b, 0x02, 0x06,
  0xfe, 0x02, 0x01, 0xfb, 0xf5, 0xfe, 0x03, 0xf8, 0xfe, 0x04, 0x0d, 0xea,
  0xf7, 0x09, 0x01, 0xf3, 0xf8, 0xf3, 0xf9, 0x07, 0x09, 0xfb, 0x05, 0xfc,
  0x0a, 0xf6, 0xf8, 0xf9, 0x01, 0x02, 0xf2, 0x03, 0xfc, 0x0b, 0x0b, 0xfb,
  0x06, 0x0a, 0xf8, 0x06, 0xf0, 0x00, 0xfe, 0xf9, 0xf6, 0xf7, 0x02, 0x08,
  0xff, 0xff, 0x07, 0x06, 0xf5, 0x08, 0x02, 0x02, 0x08, 0xf6, 0xff, 0x03,
  0xf2, 0xf8, 0xff, 0x05, 0xfe, 0xfe, 0xff, 0x06, 0x02, 0xf9, 0x04, 0xfa,
  0xf5, 0x09, 0xf4, 0xf4, 0xf9, 0xf2, 0x01, 0xfc, 0xff, 0x02, 0x08, 0xfa,
  0xf6, 0x0a, 0x0c, 0xf7, 0xf4, 0x08, 0x02, 0xf7, 0xf8, 0xf6, 0x02, 0x03,
  0x01, 0xf8, 0xfb, 0x01, 0xf3, 0xf7, 0xf5, 0x04, 0xf3, 0x02, 0xf3, 0x02,
  0xf5, 0xf4, 0xf6, 0x09, 0x08, 0xf8, 0xfa, 0xfa, 0x0a, 0xfd, 0xf8, 0xf3,
  0xf8, 0x0a, 0x05, 0xf8, 0xf4, 0x0c, 0x0a, 0x00, 0x04, 0xf1, 0xfe, 0x03,
  0x0a, 0xf1, 0x09, 0xfe, 0x04, 0x01, 0xf9, 0xf8, 0x14, 0xee, 0xfd, 0xf7,
  0xfe, 0x7f, 0x24, 0x1f, 0xf8, 0xe4, 0x02, 0xec, 0xfe, 0xfe, 0x02, 0xfd,
  0xf1, 0x07, 0xf3, 0x0c, 0x08, 0x04, 0x02, 0x05, 0x00, 0xf6, 0xfb, 0xfd,
  0x16, 0x28, 0x09, 0x1e, 0x03, 0x17, 0x29, 0xf4, 0x1b, 0x08, 0x06, 0xf1,
  0x61, 0x1a, 0x09, 0x06, 0x0d, 0x05, 0x07, 0x0f, 0x62, 0xfb, 0xf8, 0x0a,
  0x0c, 0x15, 0x16, 0xf5, 0x03, 0xff, 0x16, 0x12, 0x16, 0x0d, 0x0a, 0x12,
  0xef, 0x05, 0xf2, 0x09, 0x38, 0xf4, 0xf7, 0x08, 0x0f, 0xff, 0x00, 0x0d,
  0x05, 0x06, 0x03, 0x03, 0xf5, 0x0a, 0x24, 0x0b, 0x03, 0xe3, 0x22, 0xd2,
  0x21, 0x6d, 0xec, 0x13, 0x01, 0x06, 0x02, 0xe5, 0xfe, 0xeb, 0x24, 0x0d,
  0x04, 0xfe, 0x0d, 0x21, 0x07, 0x4a, 0xfb, 0xf7, 0xdd, 0x22, 0x08, 0x02,
  0x06, 0x0a, 0x08, 0x18, 0xf9, 0xde, 0x0b, 0x02, 0xff, 0x1c, 0x03, 0x09,
  0xfc, 0xfd, 0xce, 0xdc, 0xfa, 0xf6, 0xf6, 0xfa, 0x0b, 0xf8, 0x00, 0xfa,
  0x07, 0xfb, 0xf6, 0x08, 0xf7, 0x00, 0x09, 0xf8, 0xfc, 0x0a, 0x05, 0xf8,
  0x09, 0x03, 0xfc, 0xf6, 0xf6, 0x0b, 0xf4, 0xf3, 0x01, 0xf6, 0x07, 0x05,
  0x09, 0xf3, 0xf5, 0x06, 0x00, 0x09, 0xf6, 0xf7, 0x06, 0x05, 0xfd, 0xff,
  0xfb, 0x0b, 0x0c, 0x07, 0x05, 0xf1, 0x05, 0xff, 0xf8, 0xfc, 0xf7, 0x0c,
  0x0c, 0x03, 0xf7, 0xf8, 0xf8, 0x0a, 0x07, 0xfa, 0xfe, 0xf8, 0x09, 0xf6,
  0x0c, 0x05, 0xfc, 0xfc, 0xf3, 0x0a, 0xfb, 0xfe, 0x09, 0x0c, 0x07, 0xf7,
  0xfd, 0x04, 0x00, 0xf8, 0x00, 0xf6, 0xf6, 0xfb, 0x0a, 0x0a, 0x02, 0x09,
  0x03, 0xf2, 0x02, 0xff, 0xfd, 0xff, 0xff, 0xf6, 0xfc, 0x05, 0xf4, 0xfb,
  0xff, 0x09, 0xf4, 0x04, 0xf9, 0xf9, 0xfb, 0x08, 0x0c, 0xf4, 0xf8, 0x0a,
  0x04, 0xf5, 0x09, 0xf5, 0xfa, 0x04, 0xfa, 0x03, 0x03, 0xfc, 0x05, 0x08,
  0x04, 0x0a, 0x0c, 0xf5, 0xfd, 0x0b, 0xf9, 0xf7, 0x0a, 0x0b, 0x09, 0xfa,
  0xf2, 0xfc, 0xfe, 0x0c, 0x03, 0x09, 0x03, 0x02, 0x05, 0x00, 0x00, 0x00,
  0x08, 0xf3, 0x07, 0xf7, 0xf7, 0x01, 0xfc, 0xf2, 0x01, 0x01, 0x08, 0xf8,
  0xfa, 0xf2, 0x0c, 0xfc, 0xf8, 0xfc, 0x04, 0x02, 0xf4, 0x09, 0x08, 0x02,
  0xfa, 0x04, 0xfe, 0x06, 0x02, 0xfe, 0x03, 0xf9, 0x0c, 0xf3, 0x03, 0x05,
  0x07, 0xfc, 0xf5, 0x04, 0x02, 0x00, 0x0c, 0xf2, 0xff, 0xfe, 0xf4, 0x00,
  0x08, 0x01, 0x0c, 0x03, 0xf8, 0xff, 0xf8, 0x0c, 0xf4, 0xfd, 0xf4, 0xf7,
  0xfe, 0x02, 0xff, 0x02, 0xfa, 0x02, 0xfb, 0x0c, 0xf2, 0xf9, 0x0b, 0x04,
  0xfa, 0x01, 0x0a, 0x04, 0xf6, 0x0a, 0x04, 0x08, 0xf4, 0x09, 0x05, 0xf9,
  0xfe, 0x02, 0xf4, 0xf3, 0x06, 0xf9, 0x08, 0xfa, 0xf6, 0x0a, 0xff, 0xfe,
  0xfb, 0xfc, 0xf8, 0x08, 0xf9, 0x06, 0x03, 0x07, 0xe8, 0x1a, 0xf6, 0x00,
  0x04, 0xb8, 0xd9, 0x09, 0x04, 0xf7, 0x0b, 0x0d, 0xe6, 0xfe, 0x0c, 0xf9,
  0xd6, 0xfc, 0x0c, 0x08, 0x03, 0x05, 0x07, 0x09, 0xf5, 0x05, 0x1c, 0xf3,
  0xcc, 0x42, 0x14, 0x06, 0x33, 0x09, 0xd6, 0x13, 0x04, 0xc7, 0xe2, 0xec,
  0x00, 0xfb, 0x03, 0xf4, 0xfb, 0xfd, 0x02, 0x54, 0xcd, 0x0f, 0x07, 0xf6,
  0xf4, 0xec, 0xd2, 0xf5, 0x04, 0x02, 0x0f, 0x0b, 0x12, 0x1f, 0x1b, 0xeb,
  0xfd, 0xea, 0x07, 0x2b, 0x02, 0x09, 0xf6, 0x09, 0x14, 0x04, 0xf9, 0x0c,
  0xfc, 0x03, 0xf4, 0xfd, 0xeb, 0xfe, 0x09, 0x06, 0x06, 0x01, 0x0d, 0x0b,
  0xf5, 0xea, 0xfe, 0xe3, 0xf1, 0xf5, 0x16, 0x19, 0x09, 0x15, 0xee, 0x06,
  0xfa, 0x06, 0x1a, 0xd9, 0xfd, 0xe4, 0x04, 0x0d, 0x17, 0x0a, 0xf9, 0xff,
  0x01, 0x0b, 0x04, 0xeb, 0x08, 0xfb, 0xfc, 0xf8, 0xe9, 0xf3, 0xf6, 0x1c,
  0x07, 0x38, 0x52, 0x17, 0xfe, 0x04, 0xf7, 0x03, 0x00, 0xff, 0x04, 0x08,
  0xf5, 0xfc, 0xf9, 0xf7, 0xfa, 0x01, 0x08, 0x09, 0x00, 0x09, 0xfc, 0xff,
  0x0b, 0x01, 0x06, 0x0d, 0xf3, 0xf6, 0xf6, 0xfd, 0xf9, 0x04, 0x02, 0xfc,
  0xf6, 0xf6, 0x01, 0xfc, 0x03, 0xfc, 0xf7, 0xfc, 0x02, 0xf4, 0xfa, 0xf3,
  0x04, 0x06, 0xf6, 0xff, 0xfb, 0x02, 0x03, 0x0a, 0x0c, 0xf9, 0xf1, 0x06,
  0xfb, 0x06, 0xfd, 0xfe, 0xfa, 0xfb, 0x05, 0x03, 0x0a, 0x04, 0xf5, 0xfe,
  0xf9, 0xf4, 0x0b, 0xf5, 0xff, 0xf8, 0xfb, 0xfd, 0x00, 0x0b, 0xfb, 0xff,
  0xf8, 0xf7, 0xfd, 0xf6, 0xfa, 0xfb, 0x00, 0xf1, 0xfc, 0xff, 0x00, 0x06,
  0xfe, 0xfa, 0x02, 0xff, 0xff, 0x02, 0x01, 0xf5, 0x09, 0xfc, 0xfc, 0xf8,
  0x08, 0xff, 0xfa, 0x06, 0x00, 0x05, 0x02, 0x05, 0xfb, 0xf8, 0xf8, 0xfa,
  0xfa, 0x00, 0xfd, 0xfd, 0x06, 0xf6, 0xf9, 0xf7, 0xfe, 0x03, 0xfb, 0x06,
  0x13, 0x0a, 0xf7, 0xff, 0xf7, 0x0e, 0x19, 0xd0, 0xf7, 0x0b, 0xf6, 0xf5,
  0xbd, 0xfd, 0xfc, 0xf6, 0xf0, 0xfa, 0x04, 0x00, 0x0e, 0x05, 0xf4, 0x08,
  0x06, 0xfc, 0xe0, 0x12, 0x21, 0x0e, 0xf9, 0xda, 0xfc, 0xf9, 0x1c, 0x16,
  0x0f, 0x4a, 0x1a, 0x00, 0x12, 0x11, 0x00, 0x09, 0x04, 0xfe, 0xf9, 0xf9,
  0x24, 0x07, 0xcf, 0xda, 0xf7, 0x1d, 0x07, 0xf7, 0xfa, 0x09, 0x07, 0xed,
  0xdd, 0xfd, 0x00, 0xf0, 0xe2, 0xec, 0x14, 0xf7, 0xb8, 0x00, 0xf8, 0xf6,
  0xfa, 0xf7, 0x06, 0x07, 0x09, 0x01, 0x0b, 0xf4, 0x10, 0x0a, 0x03, 0xd2,
  0x06, 0xfa, 0x1f, 0xec, 0x01, 0x1f, 0xc8, 0xca, 0x32, 0xfa, 0x31, 0x19,
  0xfd, 0xd7, 0x3e, 0xf2, 0xfa, 0xf8, 0xf8, 0x2a, 0xfa, 0xe1, 0xf5, 0x04,
  0xe7, 0x01, 0xf7, 0x02, 0xf9, 0x04, 0xfc, 0x04, 0x01, 0x40, 0x03, 0x01,
  0xf2, 0x13, 0xfc, 0xfa, 0xfb, 0xe3, 0x00, 0xfd, 0xe9, 0xf8, 0xf7, 0x01,
  0xf9, 0xe5, 0xef, 0x21, 0xfa, 0xfe, 0x07, 0xf8, 0x19, 0x05, 0xf6, 0xfa,
  0x27, 0xf5, 0xfc, 0xfd, 0x05, 0x02, 0x00, 0x04, 0x0c, 0x00, 0x11, 0x07,
  0xf5, 0x26, 0xf8, 0x05, 0x06, 0x0b, 0xc2, 0x06, 0x06, 0xf3, 0xf8, 0x1c,
  0x02, 0xf8, 0xfa, 0x0c, 0x01, 0x0b, 0xf7, 0x05, 0xb3, 0x00, 0x06, 0xf6,
  0xf9, 0xf8, 0x10, 0x09, 0xf8, 0xf3, 0x04, 0x06, 0x16, 0x07, 0x07, 0x0d,
  0x08, 0x06, 0xee, 0x20, 0x53, 0x0b, 0x01, 0x12, 0xfb, 0x0c, 0x0a, 0x04,
  0x08, 0x00, 0x05, 0xfe, 0xf5, 0x05, 0xe9, 0x12, 0x07, 0x11, 0xee, 0x1b,
  0x07, 0xf2, 0xf9, 0x53, 0x01, 0x06, 0xed, 0x02, 0x02, 0xff, 0x0a, 0x02,
  0x08, 0xfc, 0x06, 0xe5, 0x04, 0x0a, 0x0a, 0xf0, 0x02, 0xf7, 0x0a, 0x07,
  0xf6, 0x06, 0xf3, 0x0b, 0x09, 0xe6, 0x06, 0xfb, 0xfc, 0xe5, 0xfe, 0xf7,
  0x0b, 0x1a, 0xfb, 0x21, 0x05, 0xf9, 0x02, 0xf4, 0x05, 0x04, 0xf7, 0x03,
  0x04, 0x0b, 0xf4, 0x06, 0xf5, 0xf5, 0xff, 0x04, 0xf4, 0x00, 0xfb, 0xff,
  0xfb, 0x01, 0xf4, 0x04, 0x0a, 0x07, 0xf9, 0xf3, 0xf4, 0xf8, 0xf2, 0x03,
  0xf9, 0x05, 0xf7, 0xfc, 0x04, 0xf5, 0xfc, 0xf6, 0x08, 0x05, 0xf7, 0xff,
  0x09, 0x04, 0xf5, 0xf4, 0xf8, 0xf2, 0x03, 0x12, 0x01, 0xfa, 0x08, 0x06,
  0xf4, 0xf9, 0x01, 0x05, 0x02, 0x0a, 0x00, 0xf5, 0x06, 0x05, 0x04, 0xfa,
  0x0b, 0x03, 0xfd, 0x09, 0xf5, 0x00, 0xff, 0x0b, 0x04, 0xfa, 0x09, 0x01,
  0x03, 0xfb, 0x06, 0x02, 0x03, 0xfb, 0x07, 0xf5, 0x0b, 0xf3, 0xfd, 0x00,
  0x04, 0xfb, 0xf4, 0xfb, 0xf4, 0xf8, 0x0a, 0xf3, 0xf2, 0x04, 0xf6, 0x0b,
  0xf3, 0xfd, 0xf9, 0xf4, 0x09, 0x04, 0xf7, 0xfc, 0xfd, 0xfa, 0xf4, 0x06,
  0x02, 0xfd, 0x09, 0x08, 0xfe, 0x05, 0x04, 0xff, 0x0d, 0xf2, 0x0b, 0x07,
  0xf0, 0x0c, 0xfb, 0xf4, 0xf9, 0x00, 0xed, 0xec, 0xfd, 0x0a, 0xf8, 0xfa,
  0xf8, 0x04, 0x03, 0x09, 0x0e, 0xf5, 0x15, 0xf9, 0xf4, 0x01, 0x0b, 0x09,
  0xe8, 0x0c, 0x19, 0x0e, 0xef, 0xf7, 0xff, 0xf9, 0x0f, 0x05, 0xe1, 0x02,
  0xf7, 0x1b, 0xe3, 0xfd, 0xee, 0x0e, 0x04, 0xfd, 0x0a, 0xf9, 0x07, 0x03,
  0x0c, 0x06, 0x15, 0xf5, 0x02, 0xfc, 0xd9, 0x02, 0x06, 0x0c, 0x08, 0xff,
  0x0f, 0x10, 0xfb, 0xf1, 0x11, 0x00, 0x08, 0x0c, 0xc5, 0xfe, 0x0d, 0x09,
  0x01, 0xfc, 0x06, 0x15, 0x05, 0xfb, 0xf6, 0xfc, 0x04, 0xfe, 0xda, 0xfd,
  0x01, 0x0a, 0x04, 0x23, 0xf8, 0xf3, 0x23, 0xea, 0xe7, 0x12, 0x05, 0x12,
  0x04, 0x12, 0xf6, 0xff, 0x0b, 0xfd, 0x07, 0x0f, 0x11, 0xe2, 0x06, 0x00,
  0x0e, 0xd9, 0xf8, 0x0a, 0xfd, 0x04, 0x0b, 0xf3, 0x0c, 0x21, 0xff, 0x04,
  0x01, 0xee, 0x0a, 0x06, 0x05, 0x0a, 0x31, 0xf0, 0x14, 0xfd, 0xfb, 0xfd,
  0x07, 0x08, 0x18, 0x0c, 0xfa, 0xf3, 0xf3, 0x28, 0x06, 0x01, 0xfa, 0x0a,
  0x1f, 0x0a, 0x0b, 0x0d, 0x03, 0x03, 0x04, 0xfe, 0x17, 0x01, 0x02, 0x05,
  0xfe, 0xd2, 0xfb, 0x14, 0x1e, 0x02, 0x0f, 0xf2, 0x02, 0x1a, 0xef, 0x08,
  0x23, 0x03, 0xf6, 0x10, 0xfa, 0xf5, 0x03, 0xf6, 0xf3, 0x1b, 0x02, 0xfc,
  0x08, 0xf7, 0x23, 0xfa, 0xff, 0x14, 0x05, 0x1f, 0x27, 0xf6, 0x05, 0x11,
  0x05, 0x09, 0xed, 0x0d, 0x3f, 0x00, 0x09, 0x07, 0x07, 0x02, 0x0b, 0xf3,
  0x09, 0x02, 0x03, 0xf7, 0xf7, 0x00, 0x01, 0x27, 0xfc, 0x17, 0xfa, 0x18,
  0x15, 0x05, 0x19, 0x27, 0x19, 0x14, 0xe2, 0x06, 0xf7, 0x19, 0x00, 0xf3,
  0xfa, 0x0a, 0xf3, 0xf1, 0x02, 0x08, 0x06, 0xfa, 0x13, 0xec, 0x05, 0xfe,
  0x0c, 0xff, 0xfa, 0x22, 0xf5, 0xe6, 0x02, 0xf9, 0x14, 0xfa, 0xfa, 0x11,
  0x0b, 0x14, 0x08, 0x0e, 0xea, 0x13, 0x03, 0xfc, 0xfe, 0xa2, 0xe2, 0xfd,
  0xfa, 0x0e, 0x00, 0xf9, 0x0e, 0x08, 0xfd, 0x06, 0xf6, 0x01, 0xfb, 0x00,
  0xf9, 0x03, 0x0d, 0x01, 0xf4, 0x00, 0x1f, 0x0a, 0xdc, 0x41, 0x0a, 0x16,
  0x14, 0x05, 0xa7, 0x06, 0xf7, 0xea, 0xe1, 0x13, 0xe3, 0xf3, 0xf6, 0x0a,
  0x09, 0xf5, 0xfd, 0x38, 0x91, 0x03, 0x10, 0xeb, 0x09, 0xef, 0xdf, 0xfa,
  0xfe, 0x01, 0x0b, 0x0a, 0x03, 0x1d, 0x0d, 0xef, 0x15, 0xfd, 0xfc, 0x32,
  0x05, 0xf7, 0x09, 0x19, 0x16, 0x0b, 0xf9, 0xfd, 0xfd, 0xf5, 0x07, 0x09,
  0xe9, 0xfc, 0x08, 0x0f, 0x04, 0x04, 0xfd, 0x23, 0xec, 0xcb, 0x0e, 0xe2,
  0x0f, 0xf8, 0x0b, 0x15, 0xf8, 0x06, 0xef, 0x02, 0x02, 0x02, 0x14, 0xd5,
  0x10, 0xeb, 0x02, 0x10, 0x29, 0xeb, 0x0a, 0xfa, 0x06, 0x03, 0xf4, 0xe1,
  0xf9, 0xfa, 0xf5, 0xff, 0xfd, 0xd7, 0x08, 0x18, 0xf7, 0x3b, 0x2e, 0x31,
  0xf6, 0x0a, 0xf4, 0xf3, 0xff, 0x08, 0xf8, 0x00, 0xfd, 0xfe, 0x05, 0xfa,
  0xf7, 0xfa, 0xfc, 0xf4, 0xf6, 0x05, 0xf5, 0x0c, 0x0c, 0xf7, 0xf9, 0x08,
  0x0a, 0x09, 0xff, 0x06, 0xfd, 0x06, 0xfd, 0x01, 0x05, 0x05, 0x0b, 0x00,
  0x07, 0xf0, 0x03, 0xf9, 0x02, 0x01, 0xf6, 0xf3, 0x0d, 0x09, 0x01, 0xf7,
  0xf8, 0xf3, 0x07, 0xf4, 0xf9, 0x02, 0x09, 0x08, 0x0c, 0xfc, 0xfc, 0xfc,
  0x03, 0x0a, 0xfa, 0x03, 0xfa, 0xff, 0xfa, 0xfd, 0xf4, 0x0a, 0x02, 0xf9,
  0xf8, 0x01, 0x0a, 0x06, 0x09, 0x00, 0x06, 0x06, 0x09, 0x0b, 0x02, 0xf1,
  0x03, 0xf1, 0xf9, 0x06, 0xfc, 0x06, 0xfb, 0xfd, 0x03, 0xf6, 0x00, 0xfa,
  0x08, 0xf9, 0x09, 0xf9, 0xf6, 0xfc, 0xfd, 0xff, 0xf5, 0xf8, 0xf6, 0xf4,
  0xff, 0xfe, 0x0a, 0x06, 0xf9, 0x07, 0x0c, 0x03, 0x08, 0xf8, 0x02, 0xf9,
  0x04, 0xf7, 0xf6, 0xf4, 0xf4, 0x0a, 0xf6, 0xf6, 0x03, 0x0b, 0xfa, 0xf4,
  0x0d, 0xfa, 0xfd, 0xfb, 0x0c, 0x23, 0xf5, 0xe5, 0x10, 0xf6, 0x00, 0xf9,
  0x21, 0x09, 0x08, 0x0a, 0x03, 0x0c, 0x0d, 0xf4, 0xfe, 0x06, 0x0a, 0x0b,
  0x09, 0xf4, 0xfa, 0xef, 0xe2, 0xf5, 0xb8, 0x01, 0x0e, 0x15, 0x03, 0x1a,
  0xb6, 0x0b, 0xff, 0x12, 0xf8, 0x01, 0xf8, 0xbe, 0xdc, 0x03, 0x2e, 0x01,
  0xfa, 0x0e, 0x1b, 0x06, 0x07, 0x01, 0xe3, 0xf7, 0xf5, 0xf9, 0x01, 0x07,
  0x0b, 0x2c, 0x02, 0xfa, 0x2a, 0xf7, 0xfc, 0xfe, 0xf2, 0x0b, 0x0a, 0x12,
  0x0a, 0xfc, 0x0b, 0xf5, 0x10, 0x0a, 0xf8, 0x01, 0x0c, 0x10, 0xec, 0x05,
  0xfe, 0xd7, 0x18, 0x53, 0xeb, 0x16, 0xf8, 0xf6, 0x00, 0x0a, 0xd8, 0x1b,
  0x0f, 0xfb, 0x08, 0x0f, 0xf1, 0x0d, 0xf7, 0xf5, 0x19, 0x15, 0x05, 0x12,
  0x04, 0xf8, 0xfb, 0x0f, 0x09, 0x23, 0x09, 0xff, 0x0c, 0xfe, 0xf3, 0xf9,
  0xfb, 0xf4, 0xe8, 0x2a, 0x07, 0xf6, 0xfa, 0x08, 0x0b, 0x0b, 0xfc, 0x18,
  0x0b, 0xf1, 0x0d, 0x16, 0x02, 0xf4, 0xf8, 0x0b, 0x08, 0x0d, 0x03, 0xfd,
  0xfe, 0x05, 0x00, 0xf8, 0x06, 0x00, 0x1c, 0xeb, 0xc7, 0xf1, 0xff, 0x2f,
  0x36, 0x1d, 0xc5, 0xfc, 0x0d, 0xde, 0xcd, 0xf2, 0x3c, 0x0c, 0x03, 0xfd,
  0x05, 0x07, 0x09, 0x36, 0x01, 0x10, 0x0d, 0xf6, 0xf9, 0x01, 0x05, 0xfd,
  0xff, 0x10, 0x0a, 0x12, 0x1f, 0xff, 0x04, 0x1a, 0xfe, 0x00, 0xe5, 0x16,
  0x77, 0xf8, 0xf6, 0x0e, 0x08, 0xff, 0x00, 0x05, 0xfc, 0x0b, 0x02, 0x04,
  0xf1, 0x06, 0xf8, 0x32, 0x05, 0x06, 0xea, 0x20, 0x13, 0x27, 0x2b, 0x2a,
  0xd2, 0x04, 0xd7, 0xe9, 0xf4, 0x05, 0xd9, 0x0c, 0x06, 0x02, 0x19, 0xe0,
  0x0d, 0x05, 0xfa, 0xfb, 0x22, 0x0f, 0x09, 0xf6, 0xf5, 0x03, 0xfd, 0xfa,
  0x04, 0xe0, 0x07, 0xfe, 0x11, 0x0b, 0xfc, 0x0c, 0x03, 0x26, 0x36, 0x0b,
  0xfa, 0x04, 0x05, 0xff, 0x0a, 0xc7, 0xfa, 0xe9, 0xf5, 0x0d, 0xfc, 0x0a,
  0x0d, 0xff, 0xfe, 0x09, 0x3d, 0xfc, 0xf6, 0x06, 0xf3, 0x03, 0xf5, 0x0b,
  0xfa, 0xfb, 0x23, 0x0b, 0x04, 0x10, 0xf8, 0xf6, 0x02, 0xee, 0xb8, 0x0b,
  0x09, 0x22, 0xfd, 0x27, 0xe0, 0xf0, 0x04, 0xfc, 0xf3, 0xfb, 0xfb, 0x00,
  0x9a, 0x0b, 0x07, 0x0c, 0xfc, 0x02, 0x00, 0x0a, 0xf7, 0x0a, 0x04, 0xfb,
  0xf6, 0x04, 0xfd, 0xec, 0x17, 0x19, 0x03, 0x19, 0x34, 0xf4, 0xf3, 0xf4,
  0x05, 0xfb, 0x0b, 0x08, 0x03, 0x04, 0x00, 0x0d, 0xfe, 0xf8, 0xdb, 0xf5,
  0xf7, 0x16, 0xec, 0x29, 0xf5, 0xd3, 0x0d, 0x33, 0x03, 0x12, 0x0e, 0x2c,
  0xf4, 0x19, 0xfb, 0x0b, 0xfb, 0xfd, 0xe3, 0x02, 0x05, 0xd8, 0xfb, 0xfb,
  0x2d, 0xfe, 0x01, 0x0d, 0x00, 0xfd, 0x00, 0xf0, 0x00, 0x2c, 0xf7, 0xf5,
  0xfe, 0xe1, 0x05, 0x0f, 0x0c, 0x14, 0x34, 0x38, 0x13, 0x07, 0xf5, 0x0a,
  0xfd, 0x1a, 0xef, 0xef, 0x00, 0x31, 0x03, 0xe9, 0x04, 0x02, 0x09, 0xfc,
  0xe3, 0x03, 0xf8, 0x07, 0xf7, 0x05, 0x08, 0xf7, 0xfa, 0xf4, 0x09, 0x08,
  0x08, 0xfb, 0x0a, 0x04, 0xef, 0xf4, 0x05, 0x0f, 0x0f, 0x13, 0x01, 0x03,
  0xf8, 0x10, 0xfb, 0x09, 0xfd, 0xf6, 0xfc, 0x12, 0x4e, 0xf3, 0x08, 0x17,
  0x0c, 0x12, 0xf3, 0x04, 0xf5, 0xfa, 0xf0, 0xf0, 0xf3, 0xfc, 0xf7, 0xfc,
  0xfe, 0x13, 0x18, 0xf0, 0xcb, 0x02, 0xfb, 0xfc, 0xfb, 0xf3, 0x01, 0x01,
  0x05, 0x04, 0xf6, 0x06, 0x21, 0xfa, 0x00, 0xde, 0x06, 0x04, 0xf9, 0x06,
  0xed, 0xf6, 0x1a, 0xbc, 0x00, 0xfe, 0xfd, 0x03, 0xf7, 0xf4, 0xf9, 0x17,
  0x0d, 0x04, 0x06, 0x26, 0xed, 0xe6, 0x06, 0x0e, 0x0b, 0xf5, 0xf3, 0x07,
  0x01, 0xfd, 0x03, 0xf3, 0xf6, 0x21, 0xfb, 0x01, 0x0a, 0x0b, 0x0d, 0x05,
  0x00, 0xe5, 0x07, 0xfa, 0x08, 0x04, 0x05, 0x00, 0xf4, 0x36, 0x2b, 0x15,
  0x05, 0x01, 0xf9, 0xe4, 0x13, 0x0c, 0xfe, 0xfb, 0x14, 0x04, 0xf1, 0xf7,
  0xfe, 0x09, 0xf8, 0x0a, 0x00, 0x06, 0xdc, 0x08, 0x27, 0x2c, 0xef, 0xfd,
  0xd2, 0x19, 0x10, 0xec, 0x08, 0x17, 0x14, 0xf1, 0x03, 0x1b, 0x05, 0x03,
  0x01, 0x00, 0xf5, 0xe0, 0xeb, 0x0d, 0x12, 0x0d, 0xfa, 0x11, 0x33, 0x01,
  0x08, 0x06, 0xf8, 0xf3, 0xfc, 0xef, 0xf5, 0x26, 0xf0, 0x22, 0xf8, 0xf4,
  0xf5, 0x09, 0xf4, 0xf7, 0x05, 0x01, 0xf5, 0x0c, 0x0c, 0x0b, 0xff, 0x08,
  0xe7, 0x0c, 0xdd, 0xf3, 0x0d, 0xf0, 0x10, 0xeb, 0x1e, 0x29, 0xe9, 0x61,
  0xff, 0x10, 0x0f, 0xd1, 0xf7, 0xef, 0x30, 0x21, 0xf4, 0x06, 0xe8, 0x2a,
  0x20, 0x34, 0x08, 0xe9, 0xd5, 0x28, 0x0a, 0x0d, 0x09, 0xf9, 0xf6, 0x24,
  0xfe, 0xfa, 0x09, 0xf6, 0xfb, 0x1e, 0xfe, 0xde, 0x0a, 0xcf, 0xc5, 0x11,
  0x06, 0xdd, 0xff, 0xff, 0x04, 0x00, 0x00, 0x00, 0x00, 0x15, 0x00, 0x00,
  0x13, 0xff, 0xf6, 0xfa, 0x18, 0xe9, 0xfe, 0x17, 0x26, 0xf8, 0x11, 0xfb,
  0xef, 0x0b, 0xfe, 0x15, 0xf3, 0x2b, 0x14, 0xfc, 0xf1, 0xe9, 0x02, 0xe0,
  0x1e, 0xd9, 0x10, 0x05, 0xec, 0xe6, 0xfd, 0xfe, 0xc2, 0xd3, 0x18, 0xf9,
  0x2e, 0x1e, 0xf8, 0x25, 0xce, 0x2c, 0xfa, 0xfc, 0x0e, 0x0f, 0x08, 0x0a,
  0xf6, 0x04, 0xf0, 0x0a, 0x24, 0xf4, 0x1b, 0xfa, 0xfe, 0x03, 0xdb, 0xe2,
  0x15, 0x16, 0x11, 0x0f, 0x0a, 0x12, 0x0f, 0x11, 0x07, 0xf2, 0x11, 0x1b,
  0x3b, 0xfe, 0x58, 0x20, 0xee, 0x06, 0xf7, 0x02, 0xdf, 0xeb, 0x0b, 0xe3,
  0x06, 0xf4, 0xee, 0xf0, 0x12, 0xfc, 0xf8, 0x16, 0xee, 0xed, 0xff, 0xf3,
  0xe8, 0x14, 0xe9, 0x0d, 0xf4, 0xe8, 0x04, 0x0e, 0x08, 0xf4, 0x15, 0x17,
  0xf3, 0xfd, 0x13, 0x03, 0xef, 0x04, 0xf8, 0xf5, 0x11, 0xfd, 0xef, 0xeb,
  0xfd, 0xfd, 0xf5, 0x05, 0x12, 0xf4, 0x11, 0xeb, 0x11, 0xe8, 0xeb, 0x04,
  0x00, 0xfd, 0xf3, 0x0c, 0x07, 0x03, 0xef, 0xf8, 0xf4, 0xfd, 0x04, 0x03,
  0x01, 0xfa, 0x0d, 0xec, 0x04, 0x05, 0x0d, 0xf7, 0xf9, 0xec, 0x05, 0x0f,
  0xf7, 0x04, 0xfd, 0xf4, 0xfb, 0x13, 0x0b, 0x16, 0xf2, 0x09, 0x00, 0xf5,
  0x00, 0x01, 0x07, 0xef, 0xf0, 0xff, 0xf8, 0xed, 0x14, 0x04, 0x04, 0x0d,
  0xf4, 0xef, 0xea, 0x00, 0x0f, 0x0b, 0xfc, 0xf1, 0xee, 0xf3, 0x03, 0xfa,
  0x08, 0xf7, 0xfc, 0xf4, 0x07, 0xe9, 0xf5, 0xe8, 0x08, 0xff, 0xf1, 0x00,
  0x13, 0xf4, 0xfa, 0xe8, 0x08, 0xf2, 0x02, 0x29, 0x06, 0x25, 0x06, 0x28,
  0x29, 0x30, 0x1c, 0x48, 0xee, 0x02, 0x03, 0xee, 0xe4, 0xe9, 0x09, 0xf7,
  0x17, 0x10, 0xf5, 0xf2, 0xf3, 0x03, 0x29, 0xed, 0x0e, 0xf2, 0xea, 0x03,
  0xdd, 0xd6, 0xd2, 0xc3, 0xfc, 0x0d, 0x04, 0x06, 0x12, 0xd5, 0xf9, 0xe0,
  0xf2, 0x0a, 0x1d, 0x13, 0x23, 0xe7, 0x18, 0xe1, 0x2f, 0xda, 0x0e, 0x05,
  0xf8, 0x0b, 0xe4, 0x20, 0xeb, 0x1b, 0x21, 0x10, 0x12, 0x0c, 0x0d, 0x16,
  0x04, 0x0e, 0x0d, 0xfa, 0x04, 0xe8, 0xf0, 0xfd, 0xf2, 0xfc, 0x0a, 0xe7,
  0x0b, 0xfa, 0xe4, 0xf9, 0xc3, 0x02, 0xfc, 0xf4, 0xe9, 0x13, 0xed, 0x17,
  0x17, 0xf6, 0x1f, 0xcd, 0x14, 0x0e, 0x11, 0xfc, 0x11, 0xf7, 0x22, 0x19,
  0xff, 0xfb, 0xfd, 0xed, 0xdc, 0x12, 0xdc, 0xed, 0xfa, 0x09, 0x10, 0x0e,
  0xda, 0x1f, 0xb1, 0x14, 0x05, 0xeb, 0x04, 0xfc, 0x35, 0xeb, 0x4b, 0x19,
  0x09, 0x17, 0xf9, 0xef, 0xfb, 0x0d, 0xea, 0xe9, 0xf3, 0xf0, 0xea, 0x16,
  0x0c, 0xf4, 0xfa, 0xec, 0xfa, 0xf0, 0xe8, 0xf2, 0x0c, 0xf1, 0x02, 0xf3,
  0x0f, 0xed, 0xf8, 0xfc, 0xf7, 0x0f, 0x15, 0xeb, 0x07, 0x18, 0xf1, 0x0d,
  0xe8, 0x09, 0x0a, 0xff, 0x0a, 0x0b, 0x18, 0x34, 0x17, 0x38, 0xdf, 0x0b,
  0xf1, 0xe0, 0xfd, 0xfd, 0xe5, 0xfb, 0xe5, 0x13, 0xfe, 0x02, 0x42, 0x0e,
  0xe0, 0xe9, 0x00, 0x0b, 0x31, 0xec, 0x3e, 0xeb, 0xe0, 0xff, 0xe3, 0xe7,
  0x16, 0xf8, 0x30, 0xdf, 0xe5, 0x1f, 0xfa, 0x15, 0xe9, 0xee, 0x1c, 0x0d,
  0x15, 0x04, 0xea, 0xf2, 0x07, 0x04, 0xe9, 0xe8, 0x11, 0x02, 0xf7, 0xed,
  0xf7, 0x05, 0xfa, 0x16, 0xfb, 0xea, 0x0c, 0x16, 0xf1, 0xf5, 0x11, 0xfe,
  0x02, 0xf9, 0x06, 0xfd, 0x02, 0xf9, 0x09, 0xe9, 0xfd, 0xef, 0x04, 0xfc,
  0xf0, 0xfb, 0xea, 0x07, 0xe8, 0x18, 0x20, 0xd1, 0x03, 0xec, 0xe9, 0xf5,
  0x03, 0x2b, 0xe0, 0x39, 0xf6, 0x15, 0x1f, 0x09, 0xf6, 0x08, 0x0a, 0x06,
  0x02, 0xf0, 0x0a, 0xea, 0xe9, 0xd5, 0xb5, 0xed, 0xf6, 0xff, 0x20, 0xe7,
  0x01, 0xf4, 0xfb, 0xfe, 0x2a, 0xf4, 0x2b, 0xfd, 0x0f, 0x27, 0x06, 0x30,
  0x0e, 0xf4, 0xef, 0x03, 0xe4, 0xef, 0xf2, 0xd7, 0x12, 0xd5, 0x02, 0xe9,
  0xfb, 0x1f, 0x16, 0x37, 0x60, 0x3e, 0x1b, 0xed, 0xf4, 0x05, 0xfd, 0xf9,
  0x1c, 0x07, 0x0f, 0xe2, 0xee, 0xf4, 0x07, 0xfc, 0x1f, 0xff, 0x15, 0x03,
  0xed, 0x00, 0x1e, 0xec, 0x26, 0xec, 0xfa, 0xef, 0xf5, 0xf5, 0xee, 0xf0,
  0x04, 0x02, 0xf4, 0x09, 0x10, 0xfa, 0xea, 0x14, 0xf6, 0x10, 0x02, 0xf7,
  0x01, 0x06, 0x14, 0x11, 0xf2, 0xf9, 0xfa, 0x04, 0x11, 0xf5, 0x06, 0xf3,
  0xf6, 0xfe, 0xe8, 0x07, 0xf1, 0x13, 0xf6, 0xf8, 0xfd, 0xf4, 0x13, 0x10,
  0x0e, 0xfd, 0x10, 0x12, 0xe9, 0x15, 0xeb, 0x14, 0x06, 0x12, 0xf4, 0xf4,
  0xef, 0x00, 0xed, 0x05, 0x0e, 0x0c, 0xf6, 0xee, 0x09, 0xf3, 0xed, 0x13,
  0x01, 0xff, 0xf7, 0xf3, 0x08, 0x00, 0xf1, 0xfc, 0xfa, 0xf7, 0x09, 0xeb,
  0xfa, 0xea, 0xed, 0xfe, 0xfa, 0xf5, 0x09, 0x0e, 0xff, 0xfd, 0xf9, 0x0a,
  0xf3, 0x0c, 0xf9, 0xf1, 0xf7, 0x01, 0xfc, 0xee, 0x0b, 0x07, 0x06, 0xfa,
  0x0a, 0x0f, 0x02, 0x0f, 0xfd, 0x01, 0xfd, 0xff, 0x0e, 0x02, 0xf9, 0x0f,
  0xf5, 0x00, 0xe6, 0xf7, 0xec, 0x0e, 0xe9, 0xf6, 0x02, 0xeb, 0xe9, 0xf2,
  0x1e, 0x01, 0x11, 0x15, 0xfa, 0xfe, 0x14, 0x04, 0x01, 0xe9, 0xf9, 0xf5,
  0xf1, 0x19, 0xe6, 0x36, 0x0e, 0x56, 0xf4, 0x08, 0xfc, 0x0f, 0x00, 0xea,
  0x32, 0xee, 0xfa, 0xe7, 0xdd, 0xfb, 0xee, 0xf2, 0x2a, 0xd6, 0x0a, 0x0e,
  0xe7, 0x0a, 0xe0, 0xf0, 0xf8, 0xe5, 0xe9, 0xee, 0xf9, 0xfd, 0xec, 0xec,
  0x0c, 0xec, 0x10, 0x07, 0xfd, 0xfd, 0xf5, 0x00, 0xeb, 0x12, 0x0b, 0x19,
  0xff, 0xf2, 0xec, 0x15, 0xfd, 0x08, 0xff, 0xf0, 0x02, 0x02, 0xef, 0xf5,
  0x0f, 0xee, 0x06, 0x06, 0xf2, 0x03, 0xef, 0x12, 0xf6, 0x01, 0xec, 0xe8,
  0x26, 0x01, 0x1d, 0xda, 0x00, 0xf1, 0xf8, 0x05, 0xc0, 0x25, 0x06, 0xe5,
  0x1f, 0xf0, 0x20, 0x17, 0x34, 0x12, 0x1a, 0xe4, 0x00, 0xf0, 0xf7, 0xdd,
  0xea, 0x02, 0x1c, 0x0a, 0x0c, 0xe7, 0x0d, 0xf3, 0x20, 0x0b, 0x18, 0x12,
  0x06, 0xe8, 0xfe, 0x02, 0xf6, 0x0d, 0x14, 0xfd, 0x03, 0xf1, 0x04, 0xff,
  0x03, 0x01, 0x0e, 0xea, 0x02, 0xfb, 0x07, 0xeb, 0xff, 0xec, 0x0e, 0xfa,
  0x10, 0xf3, 0xf1, 0x00, 0x01, 0x03, 0xe8, 0x00, 0x02, 0xfd, 0xf8, 0x14,
  0xe6, 0x0e, 0xf0, 0x05, 0x07, 0xe6, 0x09, 0xfe, 0xf2, 0x14, 0xf9, 0xe6,
  0x04, 0x0e, 0xfa, 0x03, 0x01, 0xf5, 0xf0, 0x0d, 0x0a, 0x0a, 0x01, 0xeb,
  0x0e, 0x09, 0xec, 0xf3, 0x04, 0xef, 0x00, 0xeb, 0x0c, 0xf1, 0xff, 0xf8,
  0x05, 0xe8, 0x00, 0xef, 0xff, 0x00, 0x04, 0xf3, 0xfe, 0x0d, 0xe8, 0xe7,
  0x09, 0x0d, 0x12, 0x16, 0x09, 0xec, 0xec, 0xf4, 0xee, 0x10, 0xea, 0x0b,
  0xee, 0xff, 0xf2, 0x14, 0x05, 0xf7, 0x05, 0xf6, 0x10, 0x15, 0x07, 0xf5,
  0xff, 0x08, 0x02, 0xf1, 0x04, 0x09, 0xef, 0xf5, 0x0f, 0xef, 0xea, 0xfe,
  0xed, 0xe8, 0xec, 0x0f, 0x0e, 0xf8, 0xff, 0x06, 0x0c, 0xf9, 0xf4, 0xf3,
  0x04, 0xfc, 0xea, 0x08, 0x0f, 0x00, 0xf7, 0x00, 0x05, 0x0a, 0xf7, 0x04,
  0x0b, 0xeb, 0xf1, 0xec, 0xfa, 0xe9, 0x11, 0xef, 0xff, 0xfa, 0x06, 0x02,
  0xf8, 0xf6, 0xed, 0x12, 0x10, 0xea, 0x0e, 0x18, 0x05, 0xf8, 0xf6, 0x03,
  0x01, 0xfb, 0xec, 0x00, 0x0d, 0xfc, 0xeb, 0x0e, 0xf9, 0x11, 0xf8, 0x14,
  0x10, 0x10, 0xf0, 0xf5, 0xf9, 0x0a, 0xee, 0xe8, 0x01, 0x09, 0xe9, 0xfb,
  0xf1, 0x04, 0x0c, 0xf4, 0x0f, 0x05, 0x08, 0xf7, 0x00, 0xe8, 0xed, 0xf8,
  0x14, 0xed, 0xea, 0xfc, 0xfb, 0xec, 0xf9, 0x09, 0x16, 0xf1, 0x14, 0xf9,
  0x12, 0x02, 0x17, 0xeb, 0x1b, 0xf6, 0x07, 0xeb, 0x03, 0xea, 0xfc, 0x01,
  0xe8, 0xef, 0x18, 0x18, 0x0e, 0x32, 0x0f, 0xf6, 0x0e, 0xe3, 0xec, 0xd9,
  0xf9, 0xd5, 0x18, 0xea, 0x17, 0xef, 0xec, 0xf9, 0xd4, 0x06, 0xfa, 0x16,
  0x07, 0x12, 0x11, 0x24, 0x10, 0x32, 0xec, 0xe8, 0x0e, 0xfb, 0x03, 0x0b,
  0x17, 0x0f, 0xfa, 0xf7, 0x12, 0x01, 0xe9, 0x04, 0xfc, 0x03, 0x01, 0xf5,
  0xf1, 0xed, 0xe8, 0xfe, 0xe8, 0x0f, 0x12, 0xf0, 0x0c, 0x14, 0xec, 0xea,
  0x08, 0x08, 0x09, 0xed, 0xe8, 0x03, 0x04, 0x0f, 0x07, 0x04, 0x14, 0x00,
  0xfa, 0xf0, 0x02, 0x03, 0xe5, 0x16, 0xf5, 0x29, 0xde, 0x33, 0xf1, 0xfa,
  0xfb, 0xe4, 0x2f, 0xd5, 0x37, 0xe2, 0xef, 0x10, 0xf4, 0xf5, 0xec, 0xf1,
  0xf6, 0x04, 0xf2, 0x06, 0xef, 0x04, 0x16, 0x1b, 0xfe, 0x21, 0xe0, 0xf0,
  0x0a, 0x0e, 0x10, 0x0c, 0x3b, 0x0b, 0xf3, 0x12, 0x07, 0x27, 0x12, 0x14,
  0xe8, 0xfc, 0xd9, 0xeb, 0xf6, 0x1b, 0x14, 0x22, 0xdc, 0x0a, 0xd8, 0xf1,
  0x17, 0x02, 0x17, 0x15, 0x09, 0x1a, 0x1b, 0x1c, 0xfd, 0xf6, 0x16, 0x12,
  0x1b, 0xec, 0x4f, 0xe7, 0xda, 0xeb, 0xfe, 0xff, 0xff, 0x05, 0xe9, 0xe1,
  0xfa, 0x04, 0x13, 0x0f, 0x02, 0x0a, 0x1c, 0xf1, 0x37, 0xd0, 0x10, 0x13,
  0xe7, 0x2b, 0xdb, 0x09, 0xe1, 0x27, 0x02, 0xf9, 0x06, 0xfb, 0x13, 0xee,
  0x37, 0xf5, 0x12, 0xf8, 0xf3, 0xf3, 0xff, 0xf2, 0x13, 0xe2, 0x05, 0x0f,
  0xfc, 0x19, 0xd9, 0xfc, 0xee, 0x08, 0xd7, 0xfc, 0x13, 0x1c, 0xf3, 0xfe,
  0x23, 0xf7, 0x09, 0xa6, 0x15, 0xe8, 0x18, 0xdb, 0xe4, 0xbc, 0xdb, 0xab,
  0x0d, 0x1f, 0xf6, 0x16, 0x24, 0x0c, 0x1e, 0x04, 0xd9, 0x24, 0x1a, 0xfc,
  0xfe, 0x19, 0xfd, 0x20, 0xdd, 0x24, 0xee, 0xfe, 0x13, 0x0b, 0x2a, 0x14,
  0xfd, 0xde, 0xfa, 0xf3, 0x0b, 0xf4, 0x12, 0x18, 0x09, 0x1f, 0xf7, 0x10,
  0xf6, 0xf0, 0xf4, 0xe4, 0xa7, 0xd0, 0x0c, 0x16, 0x2c, 0x15, 0x25, 0xf2,
  0x11, 0x07, 0x01, 0x09, 0x05, 0xff, 0x2a, 0x0f, 0x17, 0x02, 0x1a, 0xf4,
  0x01, 0x13, 0x03, 0x1c, 0x01, 0x13, 0xde, 0xe9, 0xe0, 0xf0, 0xfa, 0x0f,
  0x07, 0x20, 0x07, 0x2e, 0x14, 0x11, 0x03, 0xf5, 0x2f, 0x08, 0x3e, 0xe6,
  0xfe, 0x04, 0x04, 0xfe, 0xf4, 0xf8, 0xc9, 0xeb, 0xf4, 0x0d, 0x0a, 0x17,
  0xc2, 0x05, 0xb8, 0xfa, 0x12, 0xff, 0x0b, 0x00, 0x36, 0xee, 0x4b, 0x1a,
  0xf2, 0xfb, 0x02, 0xf4, 0xef, 0xf8, 0x06, 0x26, 0xf0, 0x42, 0xf8, 0xe6,
  0xff, 0xce, 0xfe, 0xcd, 0x18, 0xe0, 0x0b, 0x1a, 0xf4, 0xe7, 0xda, 0xde,
  0xcb, 0xec, 0x0e, 0x13, 0x1b, 0x06, 0xff, 0x06, 0xdc, 0x31, 0x1e, 0xf5,
  0x28, 0x24, 0x18, 0x21, 0x0e, 0x0d, 0xdc, 0xe4, 0x04, 0x00, 0x03, 0x07,
  0x11, 0x01, 0x22, 0xf7, 0x18, 0x0b, 0x03, 0x0e, 0xfe, 0xdb, 0xd6, 0xf1,
  0x19, 0x1c, 0x0d, 0x01, 0xe2, 0x20, 0xd0, 0x29, 0x15, 0x15, 0x21, 0x0c,
  0xe2, 0x08, 0xde, 0x24, 0x21, 0xea, 0x26, 0xe4, 0x01, 0x0b, 0x12, 0xde,
  0x0f, 0xc9, 0x0d, 0xdc, 0xe8, 0xe3, 0xeb, 0x02, 0x1a, 0xc9, 0x0a, 0xe6,
  0xe5, 0x09, 0xdd, 0x2a, 0xa4, 0x35, 0x11, 0xea, 0x2c, 0x0d, 0x15, 0x0f,
  0x06, 0x03, 0x0f, 0x06, 0x1d, 0x07, 0x0d, 0xe8, 0xf9, 0x15, 0x19, 0x08,
  0x28, 0xfc, 0xe7, 0x29, 0xe9, 0x2b, 0x2b, 0x14, 0x29, 0xfc, 0x05, 0x00,
  0x19, 0x12, 0x05, 0x3d, 0xf5, 0xf5, 0xfb, 0xea, 0xf5, 0xcf, 0xea, 0xc2,
  0xfd, 0xfb, 0x09, 0xde, 0x14, 0xf9, 0x23, 0xfc, 0x02, 0x00, 0x1a, 0x0b,
  0x3b, 0x04, 0x36, 0xe8, 0x14, 0x1d, 0xf2, 0xf9, 0xfc, 0xf1, 0xfc, 0x09,
  0x03, 0x2f, 0xf3, 0x15, 0x0b, 0x19, 0x26, 0xf5, 0x32, 0xd3, 0xf8, 0x0c,
  0x10, 0xf8, 0xed, 0xdd, 0xc3, 0xf1, 0x23, 0xfd, 0x03, 0x10, 0x1c, 0x05,
  0x09, 0xee, 0x21, 0x01, 0xf5, 0x0f, 0xf8, 0x08, 0xce, 0x0f, 0x1a, 0x1b,
  0x19, 0x03, 0x19, 0x02, 0xfc, 0x02, 0xf4, 0x0e, 0x0a, 0x13, 0x16, 0x05,
  0x1e, 0x13, 0x16, 0x00, 0xf7, 0x1a, 0xee, 0x23, 0xd9, 0x31, 0xfa, 0x21,
  0x19, 0x1d, 0x0d, 0x1f, 0x24, 0xf5, 0x28, 0x00, 0x03, 0x05, 0x19, 0xfa,
  0x12, 0xe0, 0x23, 0xed, 0xf5, 0xe7, 0xe4, 0x03, 0xd0, 0xdc, 0xb2, 0xd5,
  0xfc, 0xf8, 0xf1, 0x20, 0x03, 0xf0, 0x1a, 0x06, 0x33, 0xc9, 0x07, 0xf7,
  0x02, 0x13, 0xc8, 0x1f, 0xc7, 0x1e, 0xfc, 0xf4, 0x07, 0x15, 0x19, 0x01,
  0x38, 0xf5, 0x0f, 0x14, 0x04, 0x02, 0x13, 0xe7, 0x3e, 0xe2, 0x13, 0xeb,
  0x03, 0x0b, 0xde, 0x0e, 0xe1, 0x0f, 0x21, 0x0f, 0x29, 0x1a, 0x21, 0xf0,
  0x0b, 0xed, 0xe3, 0xf2, 0x1c, 0xde, 0x10, 0x07, 0x38, 0x04, 0x3d, 0x07,
  0x0b, 0xf5, 0x11, 0xd3, 0x04, 0xf0, 0x0d, 0xe8, 0x01, 0xe6, 0x07, 0xe7,
  0xfa, 0xf1, 0x29, 0x02, 0xf4, 0xf5, 0xe9, 0x06, 0xf4, 0xe2, 0x10, 0xe7,
  0x10, 0x45, 0x0d, 0x2a, 0x08, 0x13, 0x18, 0x26, 0xfd, 0x13, 0x11, 0xf3,
  0x03, 0xeb, 0x04, 0xee, 0xfe, 0x1b, 0x08, 0x1b, 0xf4, 0xe3, 0x01, 0xc6,
  0xe3, 0xc4, 0x0e, 0x09, 0x04, 0x03, 0xce, 0xd1, 0xc5, 0xc3, 0x12, 0x0f,
  0x00, 0x25, 0xe9, 0x0c, 0x09, 0x08, 0x12, 0xfd, 0x0d, 0xe8, 0x15, 0xfb,
  0x18, 0xe5, 0x32, 0xfd, 0x1b, 0xf7, 0x1a, 0xfa, 0x06, 0xfb, 0xf6, 0x0b,
  0x06, 0x01, 0x23, 0x0d, 0xeb, 0xfe, 0x11, 0x13, 0x0a, 0x16, 0x1b, 0x03,
  0xd1, 0x0d, 0xb7, 0xde, 0x29, 0x11, 0x04, 0x1a, 0xde, 0xf4, 0xd8, 0xf5,
  0xf3, 0xf0, 0x06, 0x13, 0x07, 0x11, 0x0a, 0xea, 0xfd, 0x02, 0x0d, 0xe7,
  0x09, 0x0c, 0x09, 0x0b, 0xfd, 0xf1, 0x09, 0x0c, 0x01, 0x0f, 0xec, 0xf7,
  0xf4, 0xf3, 0xec, 0xff, 0xf1, 0xe6, 0xf5, 0xf2, 0xea, 0xff, 0x0c, 0x00,
  0xec, 0x00, 0xf6, 0x04, 0x16, 0x0d, 0x1e, 0xf4, 0x09, 0x22, 0xfd, 0x1a,
  0x04, 0xf3, 0x18, 0x0f, 0x16, 0xf5, 0xe8, 0x23, 0xf9, 0x2c, 0x34, 0x2e,
  0xff, 0x01, 0xed, 0x08, 0xf3, 0xf2, 0x07, 0xee, 0x05, 0xf4, 0x0e, 0xf5,
  0xf5, 0xee, 0x29, 0xee, 0x05, 0xef, 0xf2, 0xff, 0xfe, 0x0b, 0xdb, 0xed,
  0xec, 0x07, 0x09, 0x05, 0x0c, 0xee, 0xea, 0xfd, 0xfe, 0xf8, 0x11, 0xf5,
  0xff, 0x09, 0x07, 0xfa, 0xf2, 0xf5, 0xfb, 0xfb, 0x03, 0xeb, 0x03, 0xfc,
  0x0e, 0xfd, 0xfd, 0xff, 0xff, 0x02, 0x01, 0x11, 0x11, 0xee, 0x06, 0xfe,
  0xe9, 0xe8, 0x06, 0x06, 0xea, 0xec, 0xef, 0x08, 0x02, 0x09, 0x13, 0xe9,
  0xeb, 0xec, 0x17, 0x07, 0x01, 0x12, 0x18, 0x01, 0x12, 0xf1, 0x13, 0xf6,
  0xfe, 0xf4, 0xea, 0x03, 0xee, 0x0f, 0xee, 0x14, 0x05, 0xed, 0xea, 0x02,
  0x14, 0x04, 0xeb, 0x02, 0xe9, 0xf2, 0x10, 0xff, 0x0a, 0xe9, 0xec, 0xef,
  0xf3, 0xf1, 0xef, 0xfd, 0xe8, 0x18, 0xf5, 0xf1, 0x0c, 0xe9, 0x0c, 0x05,
  0xf9, 0x15, 0xf0, 0x0b, 0x00, 0x15, 0x13, 0xeb, 0x0a, 0xff, 0xfc, 0xf8,
  0xf9, 0x0e, 0x10, 0xf8, 0x02, 0xf0, 0x00, 0xee, 0xf9, 0x08, 0x0c, 0x04,
  0xea, 0xf2, 0xf6, 0xe9, 0xf3, 0xf7, 0xde, 0x34, 0x0c, 0x0c, 0x0a, 0x24,
  0xdf, 0x11, 0xc5, 0x23, 0x14, 0x19, 0x09, 0xe5, 0x25, 0xb1, 0x0e, 0xa5,
  0xff, 0x15, 0xf3, 0xe6, 0x1f, 0xe2, 0xf9, 0xd2, 0xfd, 0x0d, 0xed, 0xf7,
  0xf6, 0x05, 0xf6, 0x03, 0x04, 0x2d, 0xf5, 0xfa, 0x1f, 0x1d, 0x22, 0x15,
  0xf3, 0x48, 0x05, 0x45, 0xf5, 0x1b, 0xf8, 0x26, 0x06, 0x22, 0x25, 0x1c,
  0x04, 0x01, 0x0d, 0xff, 0x12, 0xeb, 0x01, 0x06, 0x1d, 0xfb, 0x21, 0xfa,
  0x13, 0xc1, 0x0d, 0xf8, 0x0e, 0xde, 0xfc, 0xb5, 0xda, 0x9c, 0x07, 0x1c,
  0x00, 0xf9, 0xdf, 0xfb, 0xaf, 0xe9, 0x14, 0xe0, 0x18, 0xf7, 0x16, 0xf1,
  0x07, 0x01, 0xf7, 0x21, 0x06, 0x11, 0xea, 0x0b, 0xe2, 0xf1, 0xe7, 0x27,
  0x0a, 0x10, 0x06, 0x13, 0xdc, 0x04, 0xb3, 0xec, 0x18, 0x07, 0xf0, 0x1a,
  0xef, 0xf5, 0xec, 0x0d, 0x2b, 0x1c, 0x0d, 0x24, 0xe8, 0x01, 0xde, 0x2e,
  0xfb, 0x27, 0xf2, 0x2c, 0xe5, 0x0a, 0xe0, 0xcf, 0xef, 0xd3, 0xe2, 0x01,
  0xd9, 0x0d, 0x2a, 0x1b, 0x34, 0x0d, 0xdf, 0xe9, 0xf7, 0xfe, 0x1d, 0x0f,
  0x09, 0x00, 0xf9, 0x13, 0xec, 0x11, 0x1c, 0xfd, 0xf7, 0x0d, 0xe6, 0x20,
  0xe3, 0x11, 0x1e, 0xf4, 0x3f, 0x0e, 0x02, 0xfb, 0xea, 0xeb, 0x11, 0xe1,
  0x1a, 0xdb, 0x35, 0xd1, 0xec, 0xff, 0xfb, 0x1f, 0x06, 0x0f, 0x09, 0x1c,
  0x01, 0xf2, 0xee, 0x03, 0x1b, 0x07, 0x33, 0x04, 0xe5, 0xf0, 0xf2, 0x21,
  0x14, 0x0f, 0xee, 0xf9, 0xe9, 0x07, 0x00, 0x16, 0x00, 0x01, 0xe0, 0x13,
  0x16, 0xef, 0x02, 0xed, 0xe9, 0x05, 0x02, 0xf9, 0xee, 0xf0, 0xff, 0xf6,
  0x0c, 0x08, 0x00, 0x06, 0xed, 0x16, 0xfb, 0x15, 0xf4, 0x10, 0xeb, 0xf6,
  0xea, 0x0f, 0xf6, 0x09, 0xe9, 0x06, 0xf3, 0xfb, 0xfe, 0x0a, 0x05, 0x05,
  0xf3, 0xf1, 0x14, 0xfc, 0x12, 0xe9, 0x1d, 0x01, 0x18, 0xff, 0x26, 0xfa,
  0x00, 0xfa, 0x26, 0xe4, 0xf3, 0x03, 0x10, 0x0d, 0xd3, 0x03, 0xf4, 0x0c,
  0x1b, 0x09, 0x24, 0x0c, 0xfe, 0x10, 0x2c, 0xf3, 0xf9, 0xe7, 0x21, 0xe3,
  0xde, 0xdc, 0xfa, 0xdc, 0xfc, 0x11, 0x22, 0x0e, 0xf6, 0x15, 0xd3, 0x1d,
  0x23, 0xee, 0x13, 0xee, 0xf2, 0xfc, 0xf7, 0xd5, 0x1d, 0xc7, 0xe9, 0x18,
  0xfd, 0x0c, 0xeb, 0x12, 0x21, 0x24, 0xf5, 0x15, 0x17, 0xf6, 0xf5, 0xe7,
  0xed, 0xe4, 0x09, 0xec, 0xef, 0x0f, 0xde, 0x0d, 0xbf, 0xfa, 0x18, 0x1c,
  0x12, 0x1b, 0x0c, 0x23, 0xef, 0x29, 0xf0, 0xf2, 0x0c, 0x0f, 0xf8, 0xf3,
  0x00, 0x10, 0x0e, 0xe8, 0x16, 0xe8, 0x05, 0x02, 0x0e, 0xf7, 0xf8, 0x06,
  0x14, 0xf1, 0xea, 0x13, 0x08, 0xf2, 0xf2, 0x17, 0x08, 0x12, 0xea, 0xed,
  0x04, 0xf8, 0xf9, 0xfb, 0xed, 0xec, 0xfb, 0xfa, 0x05, 0xe9, 0xea, 0x03,
  0xf7, 0xf2, 0xfc, 0xf4, 0x07, 0xf3, 0x13, 0xea, 0x10, 0x00, 0xef, 0xe8,
  0x01, 0xef, 0x17, 0xee, 0x12, 0x12, 0xf5, 0x07, 0x05, 0xe8, 0xf6, 0x09,
  0x14, 0x09, 0x11, 0xf2, 0x04, 0xed, 0xeb, 0xf8, 0xea, 0x0b, 0xe9, 0x0b,
  0xf7, 0x06, 0xe8, 0xec, 0x0a, 0x09, 0x0f, 0x0f, 0xfd, 0x06, 0x09, 0xff,
  0x0f, 0xdc, 0x06, 0x06, 0x1a, 0x10, 0xf4, 0x1d, 0x04, 0x1e, 0xf0, 0x30,
  0x26, 0xfb, 0x0a, 0x1d, 0xf4, 0x17, 0xf0, 0x1e, 0x19, 0x23, 0x27, 0x09,
  0x02, 0xed, 0x05, 0xf2, 0x29, 0x1a, 0x18, 0x01, 0xdc, 0x0d, 0xd0, 0xf4,
  0xf3, 0xea, 0x16, 0xea, 0x19, 0x18, 0x13, 0x1e, 0xef, 0x1d, 0x13, 0x16,
  0x1b, 0x0b, 0xd5, 0xff, 0xb7, 0xe5, 0x09, 0xf9, 0x23, 0x20, 0xfe, 0x0b,
  0xd9, 0x24, 0x1b, 0x09, 0x1d, 0x03, 0xff, 0x0c, 0x36, 0x19, 0xf1, 0x01,
  0x04, 0xf2, 0xd9, 0xe6, 0xf3, 0xfa, 0x1d, 0xfd, 0x07, 0xe9, 0x0e, 0x0c,
  0xee, 0x23, 0xf6, 0x35, 0xfe, 0x09, 0x09, 0x07, 0x15, 0xfc, 0xfd, 0x1e,
  0x02, 0x01, 0x15, 0xe8, 0xeb, 0xf7, 0xac, 0xec, 0xf5, 0x0c, 0x0d, 0xea,
  0xf3, 0xf4, 0xdb, 0x1d, 0x24, 0xdd, 0x02, 0xdd, 0x19, 0x19, 0x28, 0x23,
  0xf3, 0xeb, 0xed, 0xee, 0xfe, 0x18, 0xf7, 0x1c, 0xe8, 0x0a, 0x05, 0x1a,
  0x0b, 0x06, 0x0b, 0x00, 0x23, 0x15, 0x0c, 0x07, 0xeb, 0x0d, 0xc6, 0xed,
  0xbe, 0x0b, 0x14, 0x08, 0xf8, 0x09, 0xe1, 0x20, 0xc9, 0x10, 0x23, 0x15,
  0x18, 0xf3, 0x21, 0x01, 0x3f, 0x19, 0xef, 0x15, 0x00, 0xf0, 0xf7, 0x02,
  0xf7, 0x1b, 0xf7, 0x14, 0x17, 0xf3, 0x13, 0x01, 0x03, 0xdb, 0xf6, 0xbd,
  0x0c, 0x18, 0xfd, 0xfd, 0x11, 0xf5, 0xd6, 0x0d, 0xff, 0xed, 0x1f, 0x02,
  0xfc, 0x26, 0x29, 0x21, 0xf7, 0x0a, 0x0d, 0x0f, 0x19, 0xf8, 0x32, 0xfb,
  0xf6, 0x0c, 0x11, 0xf9, 0xff, 0xe5, 0x18, 0xe4, 0xe6, 0x0b, 0x1b, 0xe9,
  0x0e, 0xf5, 0xe8, 0xe3, 0xbc, 0xe9, 0x07, 0x02, 0x20, 0xf0, 0xef, 0x16,
  0xd1, 0x13, 0xed, 0xf1, 0x17, 0x00, 0x0d, 0x1e, 0x0d, 0x09, 0xff, 0xf9,
  0xf8, 0x18, 0x24, 0x24, 0x23, 0x14, 0x0b, 0xed, 0xfc, 0xe2, 0x0a, 0x09,
  0x1f, 0xfd, 0x36, 0xd7, 0x04, 0xf3, 0x0a, 0x19, 0x09, 0x11, 0x16, 0x1e,
  0x0b, 0x11, 0x11, 0x15, 0xda, 0x10, 0xf8, 0x06, 0x0b, 0x15, 0xff, 0xee,
  0xc8, 0x18, 0xc6, 0x07, 0x14, 0xff, 0x0e, 0xed, 0xee, 0x0b, 0xe3, 0xfb,
  0xf6, 0x03, 0x04, 0xf9, 0xea, 0x0a, 0xdb, 0x13, 0xcf, 0x07, 0xfe, 0xf3,
  0xfb, 0x08, 0x0e, 0x1f, 0x0f, 0x1d, 0xf2, 0xe9, 0x08, 0xf3, 0x0a, 0x01,
  0x22, 0x14, 0xfb, 0x0f, 0x02, 0xf8, 0x36, 0x1e, 0x41, 0x1e, 0xd5, 0xf6,
  0xd5, 0x0c, 0x0e, 0xec, 0x24, 0xf4, 0x0c, 0x15, 0xf7, 0x02, 0xf7, 0xe6,
  0x1b, 0xdd, 0x2e, 0xb0, 0xf9, 0xed, 0xfe, 0x1c, 0xf3, 0x25, 0x34, 0xff,
  0xff, 0xf7, 0xed, 0x26, 0x27, 0x28, 0x3d, 0x13, 0xee, 0x0e, 0xda, 0xfe,
  0xef, 0x03, 0xe9, 0x09, 0xf9, 0x23, 0xe8, 0xf4, 0xe1, 0xf8, 0xf1, 0x0d,
  0x0c, 0x02, 0x10, 0xfc, 0x02, 0xf1, 0xfb, 0xfc, 0x01, 0x0b, 0x04, 0x0e,
  0x08, 0x10, 0xdf, 0xf2, 0xcf, 0xdc, 0x15, 0x15, 0x0f, 0x12, 0x2b, 0x1c,
  0x37, 0xff, 0x15, 0x04, 0x14, 0xed, 0x19, 0xe6, 0x3a, 0xff, 0x09, 0x0f,
  0xf6, 0xfb, 0xf1, 0xdf, 0x04, 0xec, 0x20, 0xd6, 0x24, 0xf5, 0x21, 0xe7,
  0x19, 0xc2, 0xed, 0xe1, 0xf9, 0x00, 0x13, 0xea, 0x04, 0xe7, 0x1c, 0x03,
  0x08, 0x0c, 0x0b, 0x05, 0x02, 0xf8, 0xd8, 0x16, 0x0f, 0x07, 0x0d, 0xfd,
  0x17, 0x04, 0x22, 0x23, 0xe7, 0xee, 0xfe, 0xf2, 0x12, 0xea, 0x08, 0xd3,
  0xef, 0x2d, 0xe5, 0x22, 0x05, 0x13, 0x07, 0x0d, 0xfd, 0x1f, 0xff, 0xce,
  0xed, 0x06, 0xfc, 0x34, 0xf1, 0x6a, 0x15, 0xf0, 0x08, 0xdf, 0x01, 0xc1,
  0xf4, 0xc3, 0x00, 0xe5, 0x0d, 0xce, 0x02, 0xe3, 0x22, 0xe5, 0x0f, 0x1a,
  0xfd, 0xee, 0x08, 0xdd, 0x1e, 0xf4, 0xf6, 0xf8, 0xfd, 0x12, 0x10, 0xf3,
  0xfc, 0x10, 0xe6, 0x11, 0xf6, 0xfe, 0xe8, 0xfb, 0x0d, 0xf0, 0x02, 0x15,
  0xf1, 0x0a, 0x06, 0x0c, 0xe9, 0xf6, 0x0c, 0x00, 0x0c, 0xef, 0xf9, 0x01,
  0xea, 0x14, 0xf7, 0xf1, 0xf2, 0xea, 0x02, 0xff, 0xe7, 0x16, 0x14, 0x08,
  0x05, 0x01, 0xf8, 0x0f, 0xfe, 0x05, 0x0a, 0x02, 0x04, 0xfb, 0x09, 0x0d,
  0xef, 0xf6, 0xef, 0xe8, 0xf1, 0x16, 0x04, 0xf2, 0xee, 0x04, 0x04, 0xf0,
  0x11, 0x0f, 0x15, 0xec, 0xfb, 0xfd, 0xf3, 0xf3, 0xeb, 0x08, 0xf0, 0xef,
  0xee, 0xeb, 0x07, 0x09, 0x12, 0xf4, 0x12, 0xe4, 0xf4, 0x10, 0x12, 0xfd,
  0xdf, 0x13, 0xe5, 0x2c, 0x04, 0xfe, 0x2c, 0xd6, 0x15, 0xf2, 0x20, 0x06,
  0x13, 0x08, 0xfd, 0xdb, 0xd4, 0xf1, 0xc0, 0xe7, 0x0d, 0x0d, 0xf8, 0xe9,
  0xe2, 0x0f, 0xf2, 0x15, 0xfe, 0xfa, 0x1e, 0x0f, 0x38, 0x14, 0x48, 0x26,
  0xf2, 0xd8, 0x0d, 0xf3, 0x18, 0x02, 0xf8, 0x13, 0xee, 0x11, 0x0e, 0x1e,
  0x28, 0xf5, 0x0b, 0x03, 0xcc, 0xde, 0x17, 0x0f, 0x20, 0xfb, 0x07, 0xff,
  0xcd, 0x1b, 0xea, 0x07, 0xfd, 0xfa, 0x16, 0x26, 0x18, 0x1b, 0xea, 0xec,
  0x0d, 0x0f, 0x00, 0xf0, 0x10, 0xf3, 0x16, 0xee, 0xe8, 0xf2, 0x08, 0x06,
  0x10, 0xfe, 0xef, 0x02, 0xf3, 0x12, 0xef, 0x0a, 0x12, 0xed, 0xfa, 0x0d,
  0xff, 0x06, 0x17, 0xf7, 0x06, 0x18, 0xf5, 0xff, 0xf8, 0xea, 0xf5, 0xee,
  0xeb, 0xe8, 0x08, 0xe8, 0xf1, 0x09, 0x02, 0x14, 0x14, 0x10, 0xf3, 0x06,
  0xfc, 0xeb, 0x02, 0x06, 0x09, 0x00, 0x14, 0x11, 0xf1, 0xf8, 0xe8, 0xff,
  0x03, 0x0e, 0x05, 0x0f, 0xfe, 0x0b, 0x12, 0xe8, 0xec, 0xed, 0xec, 0xef,
  0x06, 0x07, 0x06, 0xe9, 0xea, 0x16, 0x07, 0xfa, 0xe8, 0xff, 0x04, 0xfd,
  0xf6, 0xf8, 0xf4, 0xf0, 0xf2, 0xea, 0x08, 0x25, 0xee, 0x0b, 0x0a, 0xf5,
  0x12, 0x09, 0xf6, 0xe7, 0xf9, 0x08, 0x16, 0xf1, 0x2a, 0xdd, 0x46, 0xf0,
  0x0a, 0x1a, 0x1b, 0x11, 0x24, 0xf5, 0x1d, 0x21, 0xeb, 0x1b, 0xf3, 0x0a,
  0xfc, 0x09, 0xd0, 0xe3, 0x0a, 0x1a, 0x14, 0xed, 0x1d, 0xfc, 0x18, 0xdc,
  0x00, 0x07, 0x0f, 0xf1, 0x05, 0xfb, 0x10, 0xf4, 0xe9, 0x08, 0xea, 0x0a,
  0xec, 0xeb, 0xed, 0x0a, 0xf5, 0xe7, 0xf6, 0xe8, 0xfb, 0xf4, 0x0a, 0xf5,
  0x0c, 0x04, 0x12, 0x13, 0xf6, 0xf1, 0x02, 0x01, 0xf8, 0x09, 0xec, 0x10,
  0x02, 0x0e, 0xfe, 0x06, 0x00, 0xfd, 0x00, 0xf5, 0x12, 0xec, 0x01, 0x11,
  0xf5, 0x01, 0xf4, 0xf3, 0xea, 0xf4, 0x07, 0xf8, 0x0a, 0xf2, 0xea, 0x0b,
  0x08, 0xf9, 0xe8, 0x0c, 0xf4, 0x0b, 0xea, 0xf9, 0xfa, 0xf4, 0xfc, 0x0c,
  0x09, 0xef, 0xf0, 0xfe, 0x0d, 0xfb, 0x14, 0x0a, 0x09, 0xfe, 0xf9, 0x14,
  0xf8, 0x14, 0xf0, 0x06, 0xee, 0xf8, 0x06, 0xef, 0xf3, 0xec, 0x15, 0xf2,
  0x16, 0x02, 0xf3, 0xe7, 0xec, 0x16, 0xf9, 0xfe, 0x13, 0xef, 0xfd, 0xf7,
  0x12, 0x17, 0x0f, 0xf5, 0x08, 0xea, 0xf3, 0x13, 0x0e, 0xfe, 0xf5, 0xfc,
  0xf2, 0x0e, 0x07, 0xf1, 0xf4, 0x03, 0xff, 0xf8, 0xfb, 0x03, 0xf4, 0x06,
  0x03, 0x00, 0x01, 0xf0, 0xea, 0x09, 0xf2, 0x0f, 0xe9, 0x12, 0x03, 0xee,
  0xed, 0x0c, 0x0b, 0x13, 0x09, 0xf1, 0x00, 0x00, 0x07, 0x00, 0x06, 0xf6,
  0xe8, 0xf0, 0xef, 0x0f, 0x05, 0xee, 0xf1, 0xfa, 0x0c, 0x0e, 0x01, 0xfb,
  0x19, 0x15, 0x19, 0xfa, 0xe9, 0xfb, 0x03, 0xef, 0x09, 0x09, 0xdf, 0xeb,
  0xef, 0xf8, 0x10, 0x09, 0x09, 0x38, 0x03, 0xed, 0x0b, 0xdb, 0x2d, 0xe5,
  0x38, 0xcc, 0x1a, 0xee, 0xf7, 0xf1, 0xfe, 0xf9, 0x02, 0xdd, 0x03, 0x01,
  0xff, 0x24, 0x08, 0x26, 0xeb, 0x26, 0xe9, 0xea, 0xf7, 0x06, 0xf4, 0xf2,
  0x16, 0x01, 0xfe, 0xee, 0xf0, 0x13, 0xe8, 0x0e, 0x0e, 0x0a, 0xf1, 0x0e,
  0xf0, 0xe9, 0xfa, 0xee, 0xf5, 0xee, 0x00, 0x08, 0x0b, 0xe9, 0xee, 0x0b,
  0x0c, 0x09, 0x0b, 0xe8, 0xeb, 0xf8, 0x14, 0xfd, 0xff, 0xe9, 0x0b, 0xea,
  0xef, 0xed, 0xf9, 0xf1, 0x13, 0xef, 0x23, 0xf7, 0x23, 0xfc, 0x01, 0xcf,
  0xe8, 0xf1, 0xce, 0x14, 0xa0, 0x07, 0xee, 0xe6, 0xf2, 0x0d, 0x1b, 0x14,
  0x0c, 0x19, 0xf1, 0x03, 0xfd, 0xe9, 0xf8, 0x0a, 0xd3, 0x04, 0xf7, 0xfa,
  0x1e, 0x1b, 0x29, 0x2c, 0x26, 0x3d, 0xf4, 0x07, 0xed, 0xeb, 0xe6, 0xfc,
  0x0e, 0x17, 0xd8, 0xf5, 0x00, 0x1c, 0x12, 0xf9, 0x11, 0xeb, 0x27, 0x22,
  0x0d, 0x18, 0xf6, 0xe1, 0xf7, 0xe6, 0xbd, 0x11, 0x0f, 0x07, 0x16, 0xea,
  0xf6, 0x1a, 0xe0, 0x1a, 0x05, 0xf1, 0x26, 0xf0, 0x2f, 0x07, 0x29, 0xf9,
  0x13, 0xeb, 0x15, 0x0e, 0x0f, 0x05, 0xec, 0xec, 0xf1, 0x0d, 0xe9, 0xf9,
  0xf7, 0x0d, 0xec, 0x0c, 0xf8, 0xf7, 0xf3, 0xed, 0xf7, 0x14, 0xe9, 0xed,
  0xeb, 0xea, 0xf4, 0x18, 0x06, 0xf8, 0x07, 0xf7, 0xfb, 0x0a, 0x0c, 0x00,
  0xed, 0x03, 0x03, 0x08, 0x05, 0x04, 0x1f, 0xf4, 0x10, 0x0f, 0xfb, 0x0f,
  0xd2, 0xfe, 0xcc, 0x24, 0xf5, 0x0b, 0xe1, 0xed, 0x36, 0x28, 0x4b, 0x31,
  0x01, 0xe0, 0xe8, 0xd6, 0xee, 0xdb, 0xfc, 0xf2, 0x03, 0xec, 0x02, 0x0a,
  0x0f, 0xf1, 0x29, 0x08, 0x11, 0x16, 0xf2, 0x00, 0xf0, 0x06, 0x18, 0x0f,
  0xfd, 0xf7, 0xf6, 0x12, 0x18, 0x20, 0x21, 0x06, 0x05, 0x08, 0x2a, 0xf2,
  0x06, 0xf6, 0xda, 0xf2, 0xa3, 0xcb, 0x1e, 0x03, 0x00, 0xf6, 0xe7, 0x15,
  0x09, 0x1d, 0x24, 0x06, 0x0a, 0x08, 0x06, 0xea, 0x05, 0x07, 0x0d, 0x04,
  0x1b, 0xe8, 0xf5, 0x08, 0xd6, 0xeb, 0x06, 0x0c, 0x12, 0xf9, 0xf2, 0x0a,
  0xd2, 0x1e, 0xc3, 0x2b, 0x07, 0xf3, 0xfb, 0xfd, 0x3e, 0x18, 0x5d, 0x1d,
  0xf3, 0xea, 0xec, 0x07, 0x00, 0xe4, 0xe9, 0xe1, 0xe4, 0x0b, 0xdf, 0x06,
  0x28, 0x1d, 0x16, 0xfe, 0xe3, 0x15, 0xdd, 0x07, 0x09, 0x03, 0x02, 0x17,
  0xfc, 0xfe, 0x04, 0xef, 0xfc, 0x14, 0x16, 0x0d, 0x32, 0xdb, 0x22, 0x08,
  0x0b, 0x04, 0xe7, 0x15, 0xf0, 0x27, 0x12, 0xf2, 0xfd, 0x20, 0xeb, 0x12,
  0xdb, 0x06, 0xfd, 0x18, 0xf8, 0xee, 0xdc, 0xff, 0xbe, 0x08, 0x2f, 0x06,
  0x2e, 0xf4, 0xfa, 0xf5, 0xf3, 0xfc, 0xf7, 0x35, 0x1c, 0x06, 0x12, 0x24,
  0x2b, 0x1e, 0x16, 0x0d, 0x17, 0xfc, 0x06, 0xf5, 0xef, 0xf2, 0xe4, 0x0d,
  0x1a, 0x02, 0xf5, 0x02, 0xdf, 0xf7, 0x07, 0xd8, 0x14, 0x05, 0xf2, 0xdf,
  0xcf, 0xd8, 0xbd, 0xdb, 0x08, 0x10, 0x10, 0x0f, 0x01, 0x0e, 0xf8, 0xf4,
  0xf6, 0x04, 0xf3, 0xf0, 0xdd, 0x04, 0xe4, 0xf3, 0xfd, 0x28, 0xf1, 0x0b,
  0xea, 0xe2, 0x21, 0x16, 0x52, 0x15, 0xe4, 0x12, 0xf7, 0xfe, 0x11, 0x03,
  0x0a, 0x05, 0xfc, 0x00, 0xe9, 0xf3, 0xe5, 0x07, 0xf3, 0x1d, 0xf1, 0x09,
  0xf7, 0x0e, 0x1d, 0x09, 0x18, 0xf5, 0x15, 0xeb, 0xf7, 0x05, 0xfe, 0xd2,
  0xfa, 0xb3, 0x11, 0x98, 0x0b, 0xf8, 0xed, 0x10, 0x27, 0x10, 0x57, 0x14,
  0xf7, 0x09, 0x06, 0x00, 0xdc, 0xea, 0xf7, 0xf8, 0x10, 0x23, 0xf8, 0x06,
  0xe6, 0xf2, 0xe1, 0x10, 0xfd, 0x29, 0x0f, 0x1c, 0x0d, 0x28, 0xeb, 0x1c,
  0x2e, 0xf9, 0x0e, 0x18, 0x1c, 0x03, 0x04, 0x14, 0x0d, 0x13, 0x15, 0xe9,
  0x09, 0x00, 0xc2, 0xef, 0xc9, 0xf2, 0x0c, 0xf4, 0xf2, 0xf9, 0xf7, 0xf2,
  0xea, 0xf9, 0x19, 0xf1, 0xf5, 0xe6, 0xfe, 0xfa, 0x32, 0xf7, 0x01, 0x16,
  0xf8, 0x10, 0xe4, 0x27, 0xad, 0x1a, 0x12, 0xf8, 0xf3, 0x1b, 0x08, 0x1e,
  0xfd, 0xf5, 0xfa, 0xd8, 0x02, 0x26, 0xea, 0x11, 0x1e, 0x35, 0x4d, 0x20,
  0x1b, 0x01, 0xe1, 0x1d, 0x19, 0x10, 0x19, 0xf6, 0x21, 0xf1, 0xee, 0xeb,
  0xe5, 0x02, 0x10, 0x14, 0x1f, 0xec, 0xf7, 0x07, 0xfe, 0xe1, 0xf7, 0xf5,
  0x13, 0xf5, 0x07, 0x09, 0x1b, 0x1b, 0x05, 0xf5, 0x1f, 0xd5, 0x08, 0x18,
  0xec, 0x0b, 0xdd, 0xfb, 0xa4, 0xd8, 0x0c, 0x1d, 0xf4, 0xf8, 0x1a, 0x24,
  0x19, 0x20, 0x03, 0xfa, 0x1f, 0xfb, 0x38, 0xf7, 0x43, 0x0c, 0xf2, 0x17,
  0xdc, 0xfb, 0xd2, 0x09, 0xe2, 0xdb, 0xfc, 0x09, 0x08, 0xf9, 0xfb, 0x17,
  0xf7, 0x12, 0xd7, 0x2c, 0xf5, 0x03, 0x1e, 0xea, 0x14, 0x09, 0xf0, 0xfd,
  0x05, 0xe7, 0xf8, 0xf6, 0xee, 0xe5, 0x07, 0xec, 0xea, 0xdf, 0xeb, 0xf2,
  0x3a, 0xf4, 0x53, 0x1d, 0x0c, 0xfb, 0xf7, 0x11, 0x00, 0x0b, 0xde, 0x17,
  0xf1, 0x17, 0xea, 0xfa, 0xf7, 0xec, 0xed, 0x16, 0xf3, 0xfa, 0xf8, 0x16,
  0x0a, 0x07, 0xf3, 0x17, 0x0d, 0xeb, 0x09, 0xfc, 0xfd, 0x0d, 0xf9, 0x12,
  0xf6, 0xf7, 0xed, 0x11, 0x00, 0x08, 0x10, 0xf3, 0xf4, 0xf8, 0xf4, 0xf9,
  0x0c, 0x02, 0x0a, 0xe8, 0xf9, 0xec, 0xf7, 0xe4, 0xe6, 0x0e, 0x0c, 0xf9,
  0xdc, 0x0f, 0xdb, 0x20, 0x04, 0xfe, 0xf8, 0xee, 0x14, 0x0f, 0x36, 0xfc,
  0x0b, 0xf3, 0xf0, 0xf0, 0xf0, 0x21, 0x02, 0x0f, 0x05, 0xf7, 0xdf, 0x0c,
  0xfe, 0x25, 0x38, 0x1c, 0x08, 0xf4, 0x02, 0x0d, 0x1d, 0xed, 0x20, 0xe0,
  0x23, 0x24, 0x20, 0x21, 0x1f, 0x21, 0x31, 0x09, 0x15, 0x1a, 0x24, 0x1b,
  0x0b, 0xe8, 0xe7, 0xd9, 0xb4, 0xad, 0x12, 0x0a, 0x22, 0x01, 0xe4, 0x0f,
  0xda, 0x07, 0x16, 0xf0, 0xfb, 0xfa, 0x0f, 0xf8, 0x09, 0x15, 0xeb, 0x11,
  0xf5, 0xf5, 0xc8, 0x04, 0xb1, 0xe8, 0xe1, 0x2c, 0xf3, 0x24, 0xf7, 0x26,
  0x11, 0xf7, 0x2f, 0xc6, 0x13, 0xe6, 0xe1, 0x1a, 0x20, 0xf9, 0x32, 0xfd,
  0x0f, 0xf1, 0xe5, 0x20, 0x0e, 0x19, 0x12, 0x18, 0xe3, 0x18, 0xe3, 0x11,
  0xf6, 0xec, 0xba, 0xff, 0xe0, 0x11, 0x09, 0xf9, 0x0e, 0xff, 0x33, 0xef,
  0x15, 0x08, 0x08, 0x04, 0x09, 0xf9, 0xd9, 0xf6, 0xe5, 0x06, 0xfc, 0x09,
  0x1a, 0xfd, 0x15, 0x02, 0x38, 0x10, 0x17, 0x03, 0xf2, 0x03, 0x09, 0xfe,
  0x26, 0xf8, 0x0a, 0xf6, 0x16, 0xea, 0x03, 0xf4, 0xf9, 0xec, 0x1f, 0x0b,
  0x0c, 0xf7, 0x35, 0xfb, 0x30, 0xe8, 0x16, 0x08, 0xed, 0xe7, 0x16, 0xf6,
  0xf4, 0x14, 0x02, 0x06, 0xf3, 0xf3, 0x0b, 0x00, 0x08, 0xfc, 0xef, 0x14,
  0x03, 0xfb, 0xef, 0xe8, 0xeb, 0x06, 0xf7, 0xeb, 0xe8, 0x10, 0xee, 0x09,
  0xfe, 0x08, 0x01, 0x13, 0xef, 0xfc, 0x00, 0x14, 0x02, 0xf0, 0x04, 0xff,
  0xfa, 0x26, 0x09, 0x10, 0x13, 0xf2, 0xed, 0xf2, 0xec, 0x09, 0xf5, 0xd8,
  0x1d, 0xef, 0x11, 0xdb, 0x10, 0xda, 0xe9, 0xf6, 0x06, 0xe6, 0x07, 0xe7,
  0xfb, 0xfe, 0xfa, 0x0c, 0x0c, 0xe8, 0xd8, 0x19, 0xb8, 0x01, 0x09, 0x06,
  0x25, 0x12, 0x41, 0x0c, 0x5a, 0x14, 0xf0, 0x17, 0xfa, 0x1e, 0xf7, 0x0d,
  0x26, 0xf5, 0x33, 0xdf, 0x05, 0x06, 0x03, 0x1f, 0xc8, 0x1b, 0xeb, 0xf9,
  0x0d, 0x14, 0x0d, 0x10, 0x26, 0x1a, 0x40, 0x07, 0x1d, 0x11, 0xfa, 0xfd,
  0xff, 0x0c, 0xf0, 0xdb, 0xf0, 0xef, 0x08, 0x0d, 0xc9, 0xfd, 0xbc, 0xe6,
  0x03, 0xf8, 0x01, 0x03, 0x0a, 0x18, 0x1f, 0xe1, 0xf2, 0xc5, 0x0f, 0x2d,
  0x10, 0x2a, 0xd8, 0xf6, 0xbf, 0x14, 0x02, 0x13, 0x04, 0x1f, 0xe8, 0xf6,
  0xe8, 0x11, 0x04, 0x0e, 0xfc, 0x1d, 0x00, 0x1d, 0x0e, 0x1b, 0xea, 0x14,
  0xee, 0x01, 0xf5, 0x0f, 0xf0, 0x0c, 0x02, 0xf6, 0xf1, 0xd4, 0xfa, 0xe0,
  0xf2, 0xb3, 0xf9, 0x81, 0x0a, 0x14, 0xfd, 0x21, 0x07, 0x12, 0xf4, 0x0b,
  0x04, 0x18, 0x01, 0x08, 0xf6, 0x05, 0xfb, 0x1c, 0xf9, 0x0f, 0x1e, 0x1e,
  0xfb, 0x02, 0xce, 0x06, 0x21, 0xea, 0x07, 0xf8, 0x20, 0x28, 0x12, 0x2f,
  0xfe, 0x13, 0xef, 0xfa, 0xe9, 0x14, 0xf7, 0xed, 0x14, 0xf0, 0x01, 0xf8,
  0xee, 0x08, 0x0e, 0xf1, 0xf8, 0xf2, 0xf0, 0x16, 0x16, 0xf7, 0x09, 0x09,
  0x08, 0xeb, 0xf9, 0x09, 0xf0, 0x12, 0xf0, 0xf3, 0x08, 0xf2, 0xf4, 0xea,
  0xfc, 0x08, 0xfd, 0x18, 0x0d, 0xeb, 0x03, 0xf4, 0x08, 0xff, 0x0f, 0xce,
  0x0a, 0x04, 0x18, 0x2e, 0xf2, 0xeb, 0x04, 0xfd, 0xdd, 0x04, 0xe1, 0x02,
  0xe3, 0xee, 0xfd, 0xef, 0x19, 0xff, 0x22, 0x02, 0xe5, 0xfd, 0xf7, 0x06,
  0x13, 0x03, 0x14, 0xfd, 0xf7, 0x18, 0xf1, 0x05, 0x02, 0x14, 0xe2, 0x1a,
  0xeb, 0xf9, 0xfd, 0x0e, 0x06, 0x1b, 0xde, 0xff, 0xd4, 0x34, 0xf5, 0xf6,
  0xe8, 0xdc, 0x13, 0xee, 0x5f, 0x12, 0x04, 0x08, 0xe9, 0x08, 0x04, 0xe7,
  0xff, 0xeb, 0xe6, 0x0a, 0xdd, 0x0f, 0x09, 0xfa, 0xfa, 0x05, 0xeb, 0x26,
  0xea, 0x1c, 0x2a, 0x03, 0x25, 0x19, 0x06, 0x06, 0xf6, 0xf4, 0x15, 0xf0,
  0x01, 0xd3, 0x3d, 0xab, 0xed, 0xe4, 0x01, 0x06, 0xf1, 0x06, 0xfd, 0xf9,
  0xf7, 0xf2, 0x01, 0x12, 0x09, 0x03, 0x0f, 0x0c, 0x15, 0x08, 0x04, 0xff,
  0xd8, 0x20, 0xd8, 0x0c, 0x08, 0x04, 0xf7, 0x26, 0x00, 0x33, 0xed, 0x32,
  0x06, 0xff, 0xeb, 0xf2, 0x12, 0xf2, 0x0d, 0x06, 0xe6, 0x14, 0x01, 0xf9,
  0x07, 0x06, 0x09, 0x0a, 0xf5, 0xe6, 0xf2, 0xff, 0x0a, 0x09, 0xec, 0x11,
  0xf5, 0x08, 0xfa, 0xf1, 0x06, 0xf9, 0xfb, 0x09, 0x0c, 0x00, 0xef, 0x0d,
  0x0e, 0x06, 0xf4, 0xf9, 0x13, 0xea, 0xff, 0x24, 0xfc, 0x23, 0x18, 0x05,
  0x06, 0xe3, 0x06, 0xc4, 0xe5, 0xf2, 0xe8, 0xf8, 0xf7, 0x07, 0xfb, 0x11,
  0x08, 0xee, 0xe6, 0xf9, 0x2d, 0x02, 0x29, 0x03, 0xff, 0xef, 0x07, 0x0a,
  0xfa, 0x02, 0x0e, 0x01, 0xef, 0x1e, 0xfe, 0x12, 0xe9, 0x17, 0x0c, 0x1b,
  0xe9, 0xf7, 0xf9, 0xf0, 0xf2, 0x0a, 0x0b, 0x14, 0xeb, 0xf1, 0x16, 0xf0,
  0xf9, 0xe8, 0xfc, 0xfb, 0xfd, 0x14, 0xf9, 0x12, 0x14, 0x01, 0xf4, 0xfb,
  0xee, 0xe8, 0xff, 0x01, 0xf7, 0x06, 0x14, 0x01, 0x02, 0x15, 0x09, 0x00,
  0xf2, 0x0d, 0x14, 0xe7, 0x02, 0x09, 0xec, 0xfb, 0xfc, 0xef, 0x18, 0xee,
  0x13, 0xf0, 0xf2, 0x01, 0xef, 0xfd, 0xfd, 0x08, 0xe8, 0xf4, 0x13, 0xed,
  0x0e, 0x16, 0x06, 0xef, 0x15, 0xfa, 0xee, 0x18, 0x11, 0x05, 0xf2, 0xee,
  0xff, 0x17, 0x05, 0xf6, 0xfa, 0xed, 0xec, 0x15, 0xee, 0xea, 0x08, 0x12,
  0xe9, 0x01, 0xfa, 0xe8, 0xfe, 0xee, 0xeb, 0x0f, 0xf4, 0x13, 0xf6, 0xf6,
  0x05, 0x09, 0x0e, 0xf3, 0xe8, 0x16, 0xeb, 0xf6, 0xe8, 0xed, 0x10, 0xea,
  0x0a, 0xfc, 0xf7, 0x0f, 0xf4, 0x15, 0x14, 0x17, 0xee, 0xfc, 0x11, 0x0d,
  0xee, 0xfb, 0x08, 0x0b, 0x03, 0xf4, 0x15, 0x01, 0x07, 0xfa, 0x09, 0xf7,
  0x0d, 0xf3, 0x2c, 0xd8, 0xff, 0x06, 0x0f, 0x21, 0xe6, 0x1d, 0xfd, 0x10,
  0x1e, 0x10, 0x19, 0x09, 0x03, 0xfe, 0xdc, 0xef, 0x23, 0xe2, 0x13, 0x06,
  0xf3, 0xde, 0xe4, 0xf6, 0x2b, 0xea, 0x02, 0xf5, 0xfc, 0x13, 0xda, 0xea,
  0xfb, 0xeb, 0xef, 0xf8, 0xf2, 0x01, 0x12, 0xe9, 0xf4, 0x13, 0xf5, 0xf9,
  0x0d, 0x01, 0x15, 0xe7, 0xe9, 0x02, 0x16, 0xfd, 0xed, 0x09, 0xec, 0xf5,
  0xf7, 0x05, 0x06, 0x0b, 0x14, 0xf4, 0x06, 0xff, 0xf1, 0x08, 0xfc, 0x04,
  0x02, 0x0a, 0xe9, 0xeb, 0x15, 0xf2, 0x25, 0x24, 0xf9, 0x26, 0xfc, 0x10,
  0x11, 0xf0, 0xf6, 0xf9, 0xed, 0xfe, 0xdd, 0x09, 0xe3, 0x04, 0xf2, 0xe6,
  0xf0, 0x18, 0x14, 0xf6, 0x2e, 0xf9, 0x3d, 0x14, 0x14, 0xf7, 0x01, 0x10,
  0x33, 0x01, 0x58, 0xe9, 0xf3, 0x0d, 0xe3, 0x01, 0xcc, 0xeb, 0xb2, 0xe4,
  0xe9, 0xec, 0x0f, 0xfd, 0xfd, 0x0e, 0xf2, 0x09, 0x00, 0x16, 0x16, 0xea,
  0x08, 0xfe, 0xff, 0xf7, 0xf2, 0x05, 0xfd, 0x02, 0x09, 0x06, 0x11, 0x13,
  0xe8, 0xf2, 0xee, 0xf3, 0xff, 0x0e, 0xfc, 0xe7, 0xf7, 0xef, 0x0d, 0xeb,
  0xf7, 0x0b, 0xfd, 0xfb, 0xf9, 0x11, 0xf9, 0x16, 0xf1, 0x16, 0x0a, 0xf7,
  0xfb, 0x13, 0x01, 0xea, 0xfc, 0xee, 0x12, 0xfd, 0xf2, 0xf7, 0xfc, 0xfe,
  0x09, 0x03, 0x14, 0xf6, 0xf7, 0xf0, 0xfb, 0x04, 0x04, 0xef, 0xf8, 0xfc,
  0x12, 0xe8, 0xea, 0x0a, 0xe8, 0x16, 0x01, 0xef, 0xf8, 0x12, 0xf2, 0xf6,
  0x1a, 0xff, 0xeb, 0x16, 0x11, 0xe0, 0x0a, 0xf3, 0x25, 0xef, 0xed, 0x02,
  0xd3, 0x06, 0xf7, 0x30, 0xf1, 0x29, 0xe8, 0x0b, 0x0b, 0xed, 0x1d, 0xea,
  0x11, 0xf5, 0xfc, 0x14, 0xec, 0xf0, 0xe9, 0x10, 0xc5, 0xeb, 0x10, 0x1d,
  0xfe, 0xf7, 0x04, 0x21, 0x12, 0x32, 0xf7, 0xfb, 0x00, 0xfa, 0xfb, 0xe8,
  0x21, 0xe6, 0x2c, 0xdf, 0x1f, 0x07, 0x0a, 0x0a, 0xf9, 0xf2, 0xb6, 0xe8,
  0x09, 0x12, 0x0a, 0x12, 0x15, 0x13, 0x14, 0xfb, 0x23, 0x12, 0x26, 0x0f,
  0xdd, 0xe9, 0xcd, 0xe6, 0x29, 0x13, 0x21, 0x0b, 0x12, 0x04, 0xea, 0x0c,
  0x05, 0xfa, 0xe8, 0xf9, 0xfb, 0xfd, 0xea, 0x16, 0x04, 0x13, 0x11, 0x10,
  0x0a, 0xec, 0x0d, 0xfa, 0xfa, 0x0a, 0x0d, 0xe8, 0xfd, 0xf1, 0xed, 0x05,
  0xe9, 0xe8, 0xf3, 0x02, 0xff, 0xf0, 0x12, 0x13, 0xfa, 0xfc, 0xea, 0x15,
  0xec, 0x03, 0x01, 0xf8, 0x0b, 0xe8, 0x02, 0x08, 0x0c, 0xdd, 0x06, 0x07,
  0x05, 0x24, 0xd3, 0x48, 0x0f, 0xe6, 0x12, 0xd7, 0xec, 0xdc, 0xfb, 0xfd,
  0xf0, 0x06, 0x15, 0xd6, 0xf2, 0xda, 0xe6, 0xe8, 0x05, 0x00, 0x17, 0x02,
  0xf7, 0x14, 0x12, 0x23, 0x04, 0x0b, 0xeb, 0x04, 0x0e, 0x1f, 0x08, 0x20,
  0xed, 0x04, 0xfd, 0xf9, 0xee, 0x07, 0xef, 0x01, 0xe9, 0x03, 0xf8, 0x0f,
  0x06, 0xf1, 0x12, 0xf0, 0xfc, 0x07, 0x15, 0xf0, 0xff, 0x01, 0x13, 0x0a,
  0x08, 0xec, 0xec, 0xfb, 0x02, 0xf7, 0x14, 0x14, 0xef, 0xea, 0x02, 0x18,
  0x0c, 0xfd, 0xfe, 0x0d, 0xf0, 0xf3, 0x01, 0x0a, 0x0f, 0x10, 0xe0, 0xed,
  0xe3, 0x14, 0xe2, 0x39, 0x0a, 0xeb, 0x0d, 0xdd, 0x0b, 0xd5, 0x0a, 0xdb,
  0xe5, 0xfb, 0xf6, 0xfe, 0xdd, 0xe1, 0xcc, 0x0a, 0x07, 0x01, 0x10, 0x16,
  0x21, 0x1a, 0x1c, 0x1f, 0xdc, 0xf1, 0x09, 0x0d, 0x20, 0x17, 0x2e, 0x09,
  0xfc, 0x17, 0x15, 0xed, 0xee, 0xdb, 0xd9, 0x1e, 0xcc, 0x48, 0xfb, 0x00,
  0xf3, 0xca, 0x27, 0xc7, 0x24, 0xbe, 0xe7, 0x06, 0x07, 0xfc, 0x09, 0x08,
  0xf5, 0x02, 0xfb, 0x15, 0x09, 0xe7, 0x10, 0x17, 0x22, 0x15, 0x0f, 0x18,
  0xf9, 0x14, 0xfd, 0xfb, 0xf4, 0x12, 0xe3, 0x1b, 0x0d, 0x2a, 0x0a, 0xf4,
  0x0a, 0xd6, 0xf2, 0xfd, 0xfa, 0x03, 0xdb, 0x03, 0xef, 0xf5, 0xf7, 0xea,
  0xd4, 0x14, 0xc9, 0xec, 0xeb, 0x09, 0xf2, 0xfd, 0xcb, 0xfd, 0xd1, 0x21,
  0x17, 0x1a, 0x1c, 0x08, 0xd3, 0x2f, 0xd6, 0x36, 0x04, 0x1d, 0x14, 0x2b,
  0x12, 0xf2, 0xff, 0xff, 0x04, 0x00, 0x00, 0x00, 0x00, 0x02, 0x00, 0x00,
  0x3c, 0xea, 0x4d, 0xbd, 0x3b, 0x60, 0xb9, 0x3d, 0x00, 0x00, 0x00, 0x00,
  0x00, 0x00, 0x00, 0x00, 0x00, 0x00, 0x00, 0x00, 0x73, 0xe0, 0x5d, 0x3d,
  0xae, 0x0c, 0x8f, 0xbd, 0xe6, 0x85, 0xaf, 0x3c, 0x00, 0x00, 0x00, 0x00,
  0x0f, 0x86, 0xba, 0x3d, 0x00, 0x00, 0x00, 0x00, 0x65, 0xba, 0xf4, 0xbc,
  0xe9, 0x76, 0x99, 0x3d, 0x57, 0x77, 0xa2, 0xbb, 0x26, 0xa2, 0x9b, 0xbc,
  0x59, 0x3d, 0x15, 0xbc, 0x3e, 0x3d, 0x96, 0x3d, 0x00, 0x00, 0x00, 0x00,
  0xc2, 0x1a, 0x08, 0x3c, 0xff, 0x57, 0xc0, 0xbc, 0x7c, 0x10, 0x7b, 0xbc,
  0x00, 0x00, 0x00, 0x00, 0x00, 0x00, 0x00, 0x00, 0x3a, 0x92, 0xaf, 0xbb,
  0x56, 0x03, 0x90, 0xbb, 0xc1, 0x03, 0xb5, 0xbb, 0x67, 0xf0, 0x89, 0x3d,
  0x3d, 0x46, 0x11, 0xbd, 0x6b, 0x22, 0xab, 0xbd, 0x0f, 0x88, 0xbd, 0x3d,
  0xcd, 0xf0, 0xc5, 0x3d, 0xda, 0x18, 0x45, 0x3d, 0xe2, 0x9f, 0x2b, 0x3d,
  0x5e, 0xc0, 0xd4, 0xbc, 0x3b, 0xcf, 0x50, 0xbb, 0x33, 0x43, 0x6a, 0x3e,
  0xe8, 0xea, 0xb0, 0x3d, 0x03, 0x64, 0xab, 0xbd, 0xeb, 0xe0, 0x3c, 0xbd,
  0xa0, 0xba, 0x65, 0xbd, 0xb8, 0xe9, 0x10, 0x3d, 0xff, 0x09, 0x4f, 0xbd,
  0xf9, 0xcf, 0x77, 0xbc, 0xa9, 0x8a, 0x13, 0x3c, 0x00, 0x00, 0x00, 0x00,
  0x00, 0x00, 0x00, 0x00, 0x00, 0x00, 0x00, 0x00, 0x37, 0x7e, 0x8a, 0xbd,
  0x8d, 0x78, 0x46, 0x3b, 0xff, 0xe4, 0x10, 0x3d, 0xba, 0x62, 0x8f, 0x3c,
  0xa8, 0x0d, 0x37, 0x3d, 0x00, 0x00, 0x00, 0x00, 0xd9, 0xd1, 0xbb, 0xbc,
  0xf5, 0x94, 0xc1, 0xbd, 0x00, 0x00, 0x00, 0x00, 0x00, 0x00, 0x00, 0x00,
  0x2d, 0xb2, 0x61, 0x3d, 0xdb, 0x9e, 0x37, 0x3d, 0x6f, 0x82, 0x87, 0xbd,
  0x2a, 0x61, 0x06, 0x3c, 0xdc, 0x98, 0xec, 0x3d, 0x0f, 0xc4, 0x45, 0x3e,
  0xaf, 0x1c, 0x02, 0xbe, 0xb6, 0x21, 0x83, 0x3d, 0x48, 0x87, 0xca, 0xbd,
  0xc4, 0x04, 0x04, 0x3d, 0x3d, 0xcb, 0x99, 0x3e, 0xc4, 0x4f, 0x8b, 0x3e,
  0x95, 0x0c, 0x8f, 0xbc, 0x00, 0x00, 0x00, 0x00, 0x7b, 0xdd, 0x97, 0x3c,
  0xb2, 0xdc, 0xdb, 0x3c, 0x30, 0xe9, 0xba, 0xbb, 0x00, 0x00, 0x00, 0x00,
  0xf2, 0x9d, 0x85, 0x3c, 0x8d, 0xf9, 0xb5, 0xbb, 0x00, 0x00, 0x00, 0x00,
  0x07, 0xab, 0xc4, 0xbb, 0x00, 0x00, 0x00, 0x00, 0xfd, 0x57, 0x08, 0x3d,
  0x00, 0x00, 0x00, 0x00, 0x4f, 0xdd, 0x73, 0x3e, 0x63, 0xb8, 0x90, 0x3a,
  0x00, 0x00, 0x00, 0x00, 0xe9, 0x30, 0x19, 0xbc, 0xd4, 0x74, 0x1e, 0xbd,
  0x19, 0xa9, 0xa1, 0x3d, 0xbc, 0xb4, 0xce, 0x3a, 0xd4, 0x20, 0x34, 0x3d,
  0xce, 0xa6, 0x0e, 0x3e, 0x5b, 0x83, 0x4a, 0xbe, 0xb4, 0x66, 0xa9, 0x3d,
  0x1e, 0x6a, 0xb4, 0xbc, 0x26, 0x45, 0xf6, 0x3c, 0x45, 0x27, 0xcb, 0x3c,
  0x00, 0x00, 0x00, 0x00, 0xaa, 0x2f, 0xa8, 0x3c, 0x28, 0x13, 0x25, 0xbd,
  0x10, 0xf3, 0x9a, 0x3c, 0xc4, 0xe5, 0xf9, 0x3c, 0x90, 0x78, 0x57, 0xbc,
  0xf1, 0x6a, 0x1b, 0x3d, 0x67, 0x42, 0x75, 0xbd, 0x9a, 0x77, 0xc8, 0xbc,
  0xd0, 0x90, 0xed, 0xbd, 0x00, 0x00, 0x00, 0x00, 0x91, 0x0a, 0x5c, 0x3e,
  0x46, 0x38, 0x09, 0x3e, 0xe9, 0x9a, 0x68, 0xbd, 0x2c, 0x23, 0x8a, 0xbc,
  0x85, 0xb6, 0x36, 0xbd, 0xd6, 0x04, 0x35, 0xbc, 0x00, 0x00, 0x00, 0x00,
  0xe5, 0xe4, 0xb5, 0xbb, 0x0a, 0x06, 0xdd, 0xbd, 0x00, 0x00, 0x00, 0x00,
  0xf1, 0x8c, 0x12, 0x3e, 0x00, 0x00, 0x00, 0x00, 0x00, 0x00, 0x00, 0x00,
  0x20, 0x7d, 0xec, 0x3c, 0xd6, 0x81, 0xd4, 0xbc, 0x00, 0x00, 0x00, 0x00,
  0xd3, 0x1a, 0x76, 0x3d, 0x00, 0x00, 0x00, 0x00, 0x16, 0xe4, 0x3a, 0x3d,
  0xc0, 0xdb, 0xb5, 0x3d, 0x24, 0x76, 0x4a, 0x3e, 0x1e, 0xf4, 0xff, 0xff,
  0x04, 0x00, 0x00, 0x00, 0x00, 0x01, 0x00, 0x00, 0xba, 0x32, 0x57, 0xbd,
  0xd2, 0x81, 0xb2, 0x3c, 0xad, 0xb1, 0x3a, 0xbc, 0x46, 0x18, 0x25, 0x3d,
  0x1d, 0x96, 0x74, 0x3d, 0x21, 0x8b, 0x5c, 0x3d, 0xe5, 0x60, 0x82, 0xbc,
  0xaa, 0x3d, 0x9f, 0xbc, 0x36, 0x6f, 0x75, 0xbc, 0x52, 0x85, 0x03, 0xbd,
  0x01, 0x6e, 0xd9, 0x3d, 0xe1, 0x08, 0x41, 0xbd, 0x8d, 0xb8, 0xb8, 0xbc,
  0x59, 0x34, 0x04, 0x3e, 0x00, 0x00, 0x00, 0x00, 0x6a, 0xd9, 0x5d, 0xbd,
  0xc5, 0x2f, 0xa3, 0xbc, 0x1b, 0x85, 0x0a, 0x3d, 0x90, 0xcb, 0x20, 0x3e,
  0x5f, 0x48, 0xef, 0xbb, 0x0b, 0x13, 0xea, 0x3d, 0xc4, 0x2a, 0xf9, 0xbc,
  0xf0, 0x9a, 0xb2, 0x3e, 0x48, 0x1e, 0xe5, 0x3c, 0x27, 0xed, 0x3a, 0x3e,
  0xc4, 0x26, 0x5e, 0xbb, 0xf6, 0x3f, 0x3e, 0x3e, 0x40, 0x72, 0xe8, 0x3c,
  0x4e, 0x6b, 0xdc, 0xbc, 0x3a, 0xd0, 0x1b, 0x3e, 0x08, 0xd6, 0x9c, 0x3d,
  0xc4, 0xec, 0xbd, 0x3a, 0x00, 0x00, 0x00, 0x00, 0xc2, 0xbb, 0x0e, 0xbc,
  0x6a, 0xca, 0x0a, 0xbc, 0x4e, 0xe7, 0xf1, 0x3d, 0x29, 0x88, 0x96, 0xbc,
  0xb2, 0x18, 0x6d, 0xbc, 0xdc, 0x13, 0xc3, 0x3d, 0x4d, 0xcd, 0x56, 0xbc,
  0xa5, 0x25, 0x79, 0xbc, 0x78, 0x62, 0xfd, 0x3d, 0xff, 0xfc, 0xb1, 0x3d,
  0xea, 0x79, 0x21, 0x3e, 0x01, 0xd4, 0xf9, 0xbc, 0x0f, 0x6a, 0xf8, 0x3d,
  0xa2, 0x35, 0xee, 0xbc, 0x7d, 0x88, 0x89, 0x3c, 0x25, 0xc0, 0xc3, 0xbc,
  0x72, 0x78, 0x99, 0xbc, 0xa0, 0x5e, 0x63, 0x3e, 0x6d, 0xf8, 0xdb, 0xbc,
  0xf4, 0x94, 0xf0, 0x3c, 0x4c, 0x4a, 0x8a, 0xbd, 0xdd, 0xfb, 0x42, 0xbc,
  0x0b, 0x34, 0xa0, 0x3d, 0xfe, 0xc9, 0x98, 0xbd, 0x4e, 0x28, 0x39, 0x3e,
  0xf8, 0xf6, 0xfc, 0xbc, 0x6b, 0x9b, 0x6f, 0x3d, 0x68, 0xf2, 0xd5, 0x3d,
  0x46, 0x7a, 0xb3, 0x3d, 0x63, 0x08, 0x03, 0x3e, 0x35, 0x02, 0x12, 0xbe,
  0x2a, 0xf5, 0xff, 0xff, 0x04, 0x00, 0x00, 0x00, 0x28, 0x00, 0x00, 0x00,
  0xeb, 0xab, 0x85, 0x3d, 0x7d, 0x1c, 0x2a, 0xbd, 0x8b, 0xbd, 0x52, 0x3d,
  0xf1, 0x0e, 0xc4, 0x3d, 0xc9, 0xd1, 0x90, 0x3d, 0x82, 0xc0, 0x60, 0xbe,
  0x3a, 0x36, 0x76, 0xbe, 0x76, 0x8f, 0x98, 0xbd, 0xf8, 0x88, 0x41, 0x3e,
  0x05, 0xcd, 0x8a, 0x3d, 0x5e, 0xf5, 0xff, 0xff, 0x04, 0x00, 0x00, 0x00,
  0x00, 0x0a, 0x00, 0x00, 0xad, 0xaf, 0x35, 0xbe, 0x16, 0x86, 0x5b, 0xbf,
  0xf6, 0xe5, 0x85, 0x3e, 0x41, 0x5b, 0x6d, 0xbe, 0x10, 0x20, 0x21, 0x3e,
  0x44, 0x44, 0xe2, 0xbe, 0x74, 0xd6, 0x72, 0x3e, 0x9f, 0xec, 0x3e, 0xbe,
  0xd2, 0x45, 0x87, 0xbe, 0x22, 0x24, 0xb7, 0x3e, 0x0b, 0xf8, 0xb6, 0x3c,
  0xea, 0x9e, 0xbe, 0xbf, 0xc7, 0x55, 0x91, 0x3e, 0xfa, 0xf5, 0x80, 0xbe,
  0xda, 0x31, 0x4f, 0x3e, 0x0c, 0xe9, 0x02, 0xbf, 0xc6, 0xd6, 0xa8, 0x3e,
  0x4e, 0x57, 0xce, 0x3e, 0x96, 0x4b, 0xb0, 0x3e, 0x69, 0x70, 0x5f, 0xbf,
  0xbd, 0x14, 0x7e, 0xbf, 0x12, 0x3e, 0x91, 0x3d, 0xe0, 0x1b, 0xc4, 0x3e,
  0xac, 0x6b, 0x8e, 0x3e, 0x60, 0x1a, 0x45, 0xbf, 0x5b, 0x20, 0x0c, 0x3e,
  0x5f, 0x19, 0x09, 0x3f, 0x09, 0x95, 0xe4, 0x3e, 0x91, 0x01, 0x37, 0x3e,
  0xcd, 0x88, 0xb4, 0xbe, 0x76, 0xcf, 0x13, 0xbf, 0x51, 0x67, 0x0f, 0xbe,
  0x38, 0x4b, 0x4f, 0x3d, 0xef, 0xa5, 0x68, 0x3e, 0x58, 0xef, 0x4f, 0x3e,
  0xfe, 0x4d, 0x49, 0xbd, 0x00, 0xf2, 0x8f, 0x3d, 0x79, 0x8d, 0xa1, 0xbd,
  0x94, 0xfc, 0xc3, 0xbe, 0x5d, 0x24, 0x8b, 0xbe, 0xe9, 0x3a, 0x88, 0x3e,
  0x47, 0x1d, 0xea, 0xbf, 0x78, 0x46, 0xb7, 0xbf, 0x5f, 0xec, 0x8b, 0x3e,
  0x5e, 0x86, 0xcf, 0x3d, 0x89, 0x88, 0x38, 0x3e, 0xc4, 0x14, 0x63, 0x3e,
  0x27, 0xda, 0x58, 0xbf, 0xe4, 0x02, 0x4f, 0xbe, 0x58, 0x21, 0x7b, 0xbe,
  0x89, 0xa0, 0x2f, 0x3e, 0x21, 0xa9, 0xd9, 0xbd, 0x5a, 0x0c, 0xf7, 0xbf,
  0xd1, 0x1d, 0x6e, 0x3d, 0x89, 0x25, 0x08, 0xbe, 0xe0, 0xf0, 0x2c, 0x3f,
  0x2b, 0x32, 0x24, 0x3e, 0xc4, 0x82, 0x0a, 0x3f, 0x98, 0x63, 0x36, 0xbe,
  0xf4, 0x1d, 0x04, 0x3f, 0x27, 0x72, 0x34, 0x3e, 0x44, 0x7f, 0x01, 0x3f,
  0xf6, 0x9e, 0x2b, 0x3e, 0x4e, 0xdf, 0x1c, 0xbf, 0x5c, 0xd0, 0x5e, 0x3e,
  0xfe, 0xd2, 0x3a, 0xbe, 0xee, 0x6d, 0x00, 0x3e, 0xac, 0xc7, 0xf8, 0xbd,
  0xb5, 0x21, 0xe0, 0x3d, 0x7f, 0x41, 0x7f, 0x3e, 0xd6, 0xe7, 0x65, 0xbe,
  0x6b, 0xf3, 0xbe, 0x3d, 0xc5, 0xd5, 0xf9, 0x3d, 0x70, 0x0e, 0xb0, 0x3e,
  0x7d, 0xec, 0x76, 0xbd, 0xda, 0xb5, 0x82, 0xbf, 0x5b, 0xd9, 0x23, 0x3f,
  0xc1, 0x1c, 0x3c, 0xbe, 0xc3, 0x2c, 0x0a, 0xbe, 0xcc, 0x13, 0x22, 0x3d,
  0x61, 0x08, 0xdd, 0x3d, 0x86, 0xf5, 0xf6, 0x3d, 0xbe, 0x1f, 0x5c, 0x3e,
  0x5f, 0x02, 0xbe, 0x3c, 0xb5, 0x30, 0xe2, 0xbf, 0x21, 0xe2, 0xe4, 0xbe,
  0x55, 0x28, 0x67, 0x3e, 0x8f, 0x53, 0x0b, 0x3e, 0xa8, 0x8a, 0x0b, 0xbf,
  0x40, 0xf9, 0x39, 0x3d, 0xac, 0x36, 0xc9, 0xbe, 0x7c, 0x9b, 0xe3, 0x3e,
  0x7d, 0x37, 0xe4, 0xbd, 0xaf, 0xe5, 0xad, 0xbe, 0xe5, 0x8d, 0x9c, 0x3e,
  0x0a, 0xda, 0x91, 0x3e, 0xb8, 0x88, 0x42, 0xbe, 0x7c, 0xd1, 0xa0, 0x3d,
  0x81, 0x21, 0x30, 0x3e, 0xad, 0x9c, 0x04, 0x3e, 0x9e, 0xcf, 0xa1, 0xbe,
  0x73, 0x19, 0x72, 0x3e, 0xc9, 0xd8, 0xac, 0x3e, 0x55, 0x66, 0x7b, 0xbe,
  0x79, 0x1a, 0xab, 0xbd, 0xc1, 0x36, 0x18, 0x3f, 0x27, 0x8a, 0xe3, 0x3d,
  0x7e, 0xa0, 0xe7, 0xbc, 0x0e, 0x5c, 0x42, 0x3f, 0x24, 0xf3, 0x31, 0xbf,
  0x8a, 0x4f, 0x91, 0x3c, 0x09, 0x4c, 0xd3, 0x39, 0xa1, 0xa1, 0x52, 0xbd,
  0x93, 0xc1, 0x83, 0x3e, 0x76, 0x07, 0x9e, 0xbf, 0x6b, 0x72, 0x28, 0xbe,
  0x58, 0x87, 0xff, 0xbf, 0x5d, 0xa9, 0xa9, 0x3d, 0xa7, 0x7e, 0xa9, 0x3d,
  0x74, 0x39, 0xa6, 0xbe, 0xd7, 0x83, 0x2f, 0xbe, 0xd2, 0xf9, 0x17, 0xbf,
  0xf0, 0xe7, 0x39, 0xbd, 0x87, 0xd6, 0xb4, 0x3e, 0xe5, 0x86, 0x1b, 0xbf,
  0x83, 0xae, 0xbb, 0x3e, 0xc4, 0xa3, 0x85, 0x3e, 0x58, 0x62, 0x5e, 0x3f,
  0x9d, 0x96, 0xb9, 0xbf, 0x7d, 0x1a, 0x29, 0x3e, 0x0c, 0x21, 0x71, 0x3e,
  0xe3, 0x78, 0xac, 0xbf, 0x99, 0x83, 0x91, 0xbd, 0xfd, 0xf1, 0x65, 0xbe,
  0x3a, 0x8e, 0x28, 0xbe, 0x1f, 0x20, 0x86, 0xbe, 0x52, 0xbc, 0x92, 0x3e,
  0x97, 0x32, 0xc4, 0x3e, 0x84, 0x77, 0x1f, 0x3f, 0x40, 0xa8, 0xa5, 0x3e,
  0xcd, 0xa2, 0x50, 0xbe, 0x4e, 0x52, 0xba, 0x3e, 0x88, 0x67, 0x40, 0xbe,
  0xcc, 0xfd, 0x3b, 0xbf, 0xcd, 0x94, 0xb2, 0x39, 0x22, 0x9a, 0x25, 0xbe,
  0xcc, 0x38, 0x18, 0xbf, 0x0d, 0xe6, 0x2c, 0xbf, 0x37, 0x0c, 0x2c, 0x3f,
  0x46, 0x0d, 0x25, 0x3f, 0xc5, 0x58, 0xe6, 0x3c, 0x97, 0x43, 0x0c, 0xbf,
  0x23, 0xd0, 0xe7, 0xbe, 0xd1, 0x7d, 0xbb, 0x3d, 0xc6, 0xfa, 0x0b, 0x3f,
  0xa7, 0x7c, 0x7c, 0x3e, 0x1b, 0x0f, 0x88, 0xbe, 0x22, 0x0f, 0x5a, 0xbe,
  0x73, 0x92, 0xc4, 0xbf, 0x53, 0x17, 0xa7, 0xbf, 0xe2, 0xd3, 0x34, 0xbe,
  0x7f, 0x55, 0x6d, 0x3e, 0xf4, 0xde, 0x10, 0x3e, 0x68, 0x80, 0x37, 0xbe,
  0x9e, 0x84, 0x09, 0xbe, 0x3c, 0xa3, 0x10, 0x3e, 0x1f, 0xdf, 0xb1, 0x3c,
  0x57, 0x4c, 0x8c, 0x3d, 0xea, 0x93, 0x56, 0x3e, 0x5b, 0x9c, 0xc0, 0x3e,
  0xb2, 0x17, 0x67, 0xbe, 0xde, 0xd8, 0x93, 0x3e, 0x1a, 0x1a, 0x91, 0xbe,
  0xd9, 0xd3, 0x08, 0x3f, 0xec, 0xa2, 0x08, 0x3e, 0xdf, 0x77, 0x36, 0xbe,
  0x54, 0x94, 0x13, 0x3e, 0xab, 0xfc, 0x41, 0xbe, 0x53, 0x98, 0x0c, 0x3f,
  0x93, 0xc9, 0x36, 0xbc, 0x30, 0x63, 0xab, 0xbe, 0xb3, 0xa9, 0xfe, 0x3e,
  0xff, 0x72, 0xd4, 0xbc, 0x10, 0xef, 0xa6, 0x3e, 0x83, 0x5a, 0x51, 0x3e,
  0x47, 0xab, 0x01, 0x3f, 0x8f, 0xd1, 0xb6, 0xbd, 0x1f, 0x69, 0x0f, 0xbf,
  0x4e, 0x65, 0x1a, 0x3e, 0xb6, 0xdb, 0xbb, 0x3e, 0xd3, 0xe8, 0x13, 0xbf,
  0xc7, 0x60, 0x82, 0x3e, 0xe8, 0x94, 0x06, 0xbf, 0x38, 0x98, 0x03, 0x3f,
  0x92, 0x48, 0x1d, 0x3e, 0x47, 0x2d, 0x8d, 0xbe, 0x2e, 0x69, 0x1a, 0xbf,
  0x46, 0x27, 0xb5, 0x3e, 0x0e, 0x1a, 0x17, 0xbd, 0xbf, 0x01, 0x3f, 0x3e,
  0x20, 0x87, 0x7c, 0xbd, 0xbc, 0xf1, 0x47, 0xbf, 0x8c, 0xf4, 0x0b, 0xbf,
  0x08, 0xd6, 0x4a, 0xbc, 0xbe, 0x67, 0xdc, 0xbe, 0xf7, 0x8c, 0x66, 0x3c,
  0x00, 0x29, 0x98, 0xba, 0x7b, 0x22, 0xd9, 0xbe, 0x67, 0x61, 0x10, 0xbc,
  0x10, 0x61, 0x06, 0x3f, 0x68, 0x1e, 0x00, 0xbf, 0xbd, 0xaf, 0xe6, 0x3e,
  0x9b, 0xe2, 0x6d, 0x3e, 0x43, 0x6f, 0xf9, 0xbd, 0xb8, 0x2f, 0x08, 0x3e,
  0xf7, 0xd3, 0x4b, 0xbf, 0xd4, 0x9e, 0x0c, 0x3f, 0x44, 0x45, 0x43, 0xbe,
  0x53, 0xd1, 0x36, 0xbe, 0x8e, 0x6d, 0x05, 0xbf, 0x79, 0x0e, 0x80, 0xbe,
  0xb5, 0x09, 0x0f, 0x3f, 0x3c, 0x7e, 0xa1, 0xbe, 0x9d, 0x98, 0xd9, 0xbe,
  0xc6, 0xb9, 0x98, 0xbd, 0x1f, 0x2f, 0x39, 0xbe, 0x92, 0x96, 0xa9, 0x3c,
  0x8e, 0x76, 0x8e, 0xbd, 0x0c, 0xd9, 0x44, 0xbe, 0xc0, 0xf6, 0xdf, 0xbd,
  0x73, 0x7a, 0x9b, 0xbf, 0xb3, 0xe5, 0x4e, 0xbc, 0x81, 0xdc, 0x88, 0x3e,
  0xf2, 0xf0, 0xae, 0x3f, 0xf9, 0x7c, 0x65, 0x3f, 0x32, 0x0c, 0x9e, 0x3e,
  0x0b, 0x29, 0x26, 0xbf, 0x85, 0x47, 0xbd, 0x3e, 0xe5, 0xbb, 0xc3, 0xbd,
  0x7d, 0x6c, 0xb5, 0x3e, 0x11, 0x9b, 0xd3, 0x3d, 0x1f, 0x22, 0x17, 0xbe,
  0x53, 0x78, 0x85, 0x3e, 0xaa, 0xd8, 0xca, 0x3d, 0x31, 0xe4, 0xd5, 0xbf,
  0xc9, 0x24, 0x91, 0xbe, 0x37, 0x42, 0x63, 0xbe, 0xaa, 0x0d, 0x9c, 0x3e,
  0xfb, 0x9c, 0x34, 0xbd, 0x87, 0x5c, 0x61, 0xbe, 0x40, 0x87, 0xf1, 0x3d,
  0x2c, 0x83, 0x57, 0xbf, 0x0d, 0xc7, 0xfa, 0x3e, 0xa3, 0x93, 0xd0, 0xbe,
  0xa7, 0x1a, 0xd5, 0x3e, 0xac, 0x28, 0x69, 0x3d, 0x5e, 0x90, 0x6b, 0xbc,
  0x20, 0x52, 0xf0, 0x3d, 0xe1, 0xb5, 0x52, 0xbe, 0x11, 0x31, 0x37, 0x3f,
  0x31, 0xcc, 0xbf, 0x3e, 0xcd, 0xc3, 0x04, 0xbf, 0xd1, 0x77, 0x8c, 0xbe,
  0xa0, 0xb4, 0xe4, 0x3c, 0xc1, 0xe5, 0x8b, 0xbe, 0x2c, 0x3f, 0x5d, 0x3b,
  0x80, 0x52, 0xf1, 0x3d, 0xa0, 0x9f, 0x19, 0x3f, 0xf4, 0x50, 0x58, 0xbf,
  0x03, 0xd9, 0x01, 0x3f, 0x80, 0x4d, 0xab, 0x3b, 0x07, 0x78, 0x03, 0x3f,
  0x97, 0x8a, 0x01, 0x3e, 0x2f, 0xdf, 0x31, 0xbf, 0x9f, 0xf7, 0x02, 0xbd,
  0xd5, 0x2b, 0x63, 0x3e, 0x96, 0xd3, 0x08, 0x3f, 0x15, 0x60, 0xe8, 0x3e,
  0x45, 0x9c, 0x2e, 0xbe, 0x23, 0x21, 0x23, 0xbf, 0x97, 0xa9, 0xfd, 0x3e,
  0x60, 0x76, 0xac, 0xbd, 0xce, 0xc2, 0xe1, 0xbd, 0xc0, 0x86, 0x3b, 0x3e,
  0x4b, 0x17, 0xcf, 0x3d, 0x55, 0xa6, 0xfa, 0xbd, 0x4a, 0xe8, 0x7e, 0x3e,
  0x82, 0x99, 0xbf, 0x3e, 0x3f, 0x19, 0x89, 0x3e, 0x06, 0xab, 0x75, 0xbe,
  0x87, 0x04, 0x6d, 0x3e, 0x57, 0xfb, 0x50, 0x3e, 0xf3, 0x65, 0x41, 0xbe,
  0x89, 0x51, 0xcc, 0x3d, 0xf0, 0x3a, 0xba, 0xbf, 0x36, 0xbb, 0x95, 0x3d,
  0x60, 0xe3, 0x5b, 0xbd, 0xd7, 0x93, 0x0d, 0xc0, 0x7d, 0x6c, 0x09, 0xc0,
  0xcb, 0xb0, 0xf0, 0xbc, 0xbe, 0xe1, 0xab, 0xbe, 0xb5, 0xbf, 0xc2, 0xbd,
  0xe2, 0x5e, 0xa0, 0xbd, 0x59, 0xb0, 0x8b, 0x3e, 0x12, 0x95, 0x0d, 0xbd,
  0x2b, 0xf8, 0xae, 0xbc, 0xe7, 0xa1, 0xcb, 0xbe, 0x89, 0x54, 0xab, 0xbd,
  0xc4, 0x04, 0xc0, 0x3f, 0xfd, 0xf4, 0x2f, 0xbf, 0x3d, 0x64, 0x96, 0x3b,
  0xcc, 0x8c, 0xe8, 0xbe, 0x09, 0x5e, 0x43, 0x3e, 0x98, 0x0c, 0x1c, 0xbf,
